#if defined __ICCARM__
#define __ALIGNED(x) __attribute__((aligned(x)))
#else
#define __ALIGNED(x) __attribute__((aligned(x)))
#endif
const unsigned char model1[] __ALIGNED(16) = {
0x4e,0x4e,0x43,0x55,0x01,0x00,0x01,0x00, 0x01,0x0e,0x07,0x00,0x07,0x00,0x00,0x00, // 16
0x02,0x00,0x00,0x00,0x00,0x00,0x00,0x00, 0x18,0x01,0x00,0x00,0x02,0x00,0x00,0x00, // 32
0xe0,0x01,0x00,0x00,0xc8,0x00,0x00,0x00, 0x18,0x01,0x00,0x00,0x00,0x00,0x00,0x00, // 48
0x00,0x00,0x00,0x00,0x00,0x00,0x00,0x00, 0x00,0x00,0x00,0x00,0x00,0x00,0x00,0x00, // 64
0x00,0x00,0x00,0x00,0x00,0x00,0x00,0x00, 0xff,0xff,0xff,0xff,0xff,0xff,0xff,0xff, // 80
0x43,0x4d,0x44,0x00,0x20,0x00,0x80,0x00, 0x50,0x00,0x00,0x00,0x00,0xfe,0x00,0x00, // 96
0x73,0x6d,0x61,0x72,0x74,0x63,0x61,0x72, 0x5f,0x61,0x64,0x5f,0x64,0x65,0x6e,0x73, // 112
0x65,0x5f,0x64,0x72,0x6f,0x70,0x5f,0x30, 0x32,0x35,0x5f,0x61,0x64,0x53,0x69,0x7a, // 128
0x65,0x5f,0x31,0x5f,0x6e,0x6f,0x62,0x6e, 0x2e,0x68,0x35,0x0d,0x0a,0x53,0x75,0x6e, // 144
0x20,0x41,0x75,0x67,0x20,0x20,0x32,0x20, 0x31,0x30,0x3a,0x32,0x34,0x3a,0x31,0x36, // 160
0x20,0x32,0x30,0x32,0x30,0x0d,0x0a,0x31, 0x34,0x20,0x62,0x69,0x74,0x73,0x0d,0x0a, // 176
0x6e,0x6e,0x63,0x75,0x20,0x76,0x65,0x72, 0x20,0x30,0x2e,0x30,0x70,0x0d,0x0a,0x00, // 192
0x00,0x00,0x00,0x00,0x00,0x00,0x00,0x00, 0x00,0x00,0x00,0x00,0x00,0x00,0x00,0x00, // 208
0x43,0x4d,0x44,0x00,0x20,0x02,0x00,0x00, 0xd0,0x00,0x00,0x00,0x10,0x02,0x00,0x00, // 224
0x00,0x01,0x00,0x02,0x07,0x03,0x05,0x08, 0x00,0x00,0x00,0x00,0x00,0x00,0x00,0x00, // 240
0x01,0x00,0x07,0x00,0x01,0x00,0x01,0x00, 0x8c,0x00,0x01,0x00,0x00,0x00,0x00,0x00, // 256
0x0c,0x00,0xff,0xff,0xff,0xff,0xff,0xff, 0x00,0x01,0x01,0x00,0x18,0x01,0x00,0x00, // 272
0x00,0x00,0x03,0x00,0x0e,0x00,0x00,0x00, 0x00,0x00,0x00,0x00,0x00,0x00,0x00,0x00, // 288
0x00,0x00,0x00,0x00,0x00,0x00,0x00,0x00, 0x00,0x00,0x00,0x00,0x00,0x00,0x00,0x00, // 304
0x00,0x00,0x00,0x00,0x00,0x00,0x00,0x00, 0x00,0x00,0x00,0x00,0x00,0x00,0x00,0x00, // 320
0x00,0x00,0x00,0x00,0x00,0x00,0x00,0x00, 0xa8,0x07,0x00,0x00,0x18,0x01,0x00,0x00, // 336
0xcc,0x00,0x09,0x00,0x93,0xff,0xa6,0x02, 0xe8,0x02,0x7e,0xfa,0xc7,0xff,0xaa,0x01, // 352
0x5c,0xff,0xa0,0x00,0x1a,0xfd,0xc0,0x06, 0x97,0xfb,0xb3,0xfe,0xf8,0x03,0xe9,0xfb, // 368
0x01,0x04,0xe5,0xfd,0x6c,0x00,0x20,0x00, 0x5c,0xfe,0xa5,0xf9,0x99,0x03,0x98,0xfe, // 384
0x9f,0x00,0xd1,0xfe,0x0f,0x01,0x41,0x04, 0x17,0xff,0xeb,0x01,0x79,0xfd,0x6b,0x00, // 400
0xc9,0x03,0x18,0xfc,0x92,0xff,0xf1,0x04, 0xc9,0xfa,0xad,0x01,0x85,0xff,0xe3,0xff, // 416
0x16,0x00,0xf5,0x00,0x39,0x02,0xad,0xfd, 0x62,0x05,0x69,0xfc,0xd9,0xfc,0x02,0x08, // 432
0x12,0x02,0xc0,0x04,0x46,0xfc,0x44,0x01, 0x0d,0xff,0x2e,0x01,0x75,0xfe,0x50,0xfd, // 448
0x3e,0x04,0xb8,0xfa,0x17,0x01,0x2b,0x03, 0x71,0xfb,0x70,0xff,0xda,0xfc,0xc6,0x02, // 464
0x2f,0x04,0x10,0xfb,0x7f,0x03,0x04,0xff, 0xbe,0xfe,0x67,0xfb,0x08,0x05,0xbb,0xfd, // 480
0xef,0x02,0x35,0xff,0x9e,0x02,0xf0,0x00, 0xa8,0xff,0xc0,0xfc,0x36,0x03,0xb7,0xfd, // 496
0x9d,0xfd,0x07,0x05,0x5a,0x00,0xf5,0xff, 0xf4,0xfb,0x8c,0xfe,0xae,0xfc,0x49,0x03, // 512
0x38,0xf8,0x34,0x02,0x23,0x07,0x12,0x00, 0x5a,0x00,0x24,0xff,0x35,0xfe,0xd1,0x05, // 528
0x84,0xfe,0xc0,0xff,0xfb,0xfb,0x72,0x01, 0x16,0x02,0x85,0xfb,0x4e,0x04,0xb4,0xfb, // 544
0xea,0xff,0xb6,0x03,0xda,0x02,0xf0,0xfb, 0x08,0x02,0x3e,0xff,0x00,0xff,0x90,0xf9, // 560
0xd9,0xfc,0x02,0x06,0x49,0xfc,0xc1,0x01, 0x62,0xff,0x1c,0x00,0x71,0xff,0x20,0x04, // 576
0xb3,0xfd,0x61,0xfe,0x20,0x06,0x72,0xfc, 0xa4,0xff,0x00,0xfe,0x65,0xff,0x06,0x01, // 592
0xbd,0xfe,0xea,0xff,0x3f,0x04,0x62,0xfe, 0x0c,0x00,0x1d,0xfd,0xaa,0x03,0xa5,0xfb, // 608
0xbe,0x05,0x58,0xfb,0xcf,0x01,0xf9,0x00, 0xc1,0x03,0xd3,0xfa,0x78,0xf8,0x91,0x06, // 624
0x61,0xf5,0xa9,0xf6,0x5f,0xee,0xd6,0x00, 0x1a,0x00,0x8b,0xff,0xfb,0x01,0x4d,0x04, // 640
0x45,0xfa,0xca,0xff,0x12,0xfc,0x96,0x01, 0x7c,0xfd,0x3c,0x01,0xa0,0x01,0xe8,0xfd, // 656
0x2c,0x03,0x60,0x00,0x0c,0x00,0x2b,0x00, 0x94,0xff,0xf2,0xfa,0x75,0x04,0x9a,0xff, // 672
0x00,0x01,0x01,0xfe,0x22,0x03,0x76,0xfe, 0x8d,0xfd,0x4a,0x04,0x37,0x01,0x9f,0x05, // 688
0x8e,0xfe,0x6a,0xff,0xef,0xff,0x6c,0x00, 0x9a,0xff,0x1e,0xfe,0xdf,0xfa,0xf1,0x02, // 704
0xa6,0xff,0xbb,0xff,0x43,0x00,0xf1,0xff, 0xbf,0x00,0x60,0xf9,0x21,0x03,0x1d,0x03, // 720
0x03,0xfb,0x2b,0x04,0xe9,0x00,0xc0,0x00, 0xde,0xfd,0x2c,0x01,0xd7,0x02,0xd8,0xfd, // 736
0xa5,0x08,0xba,0xfa,0x52,0x04,0xd8,0xfb, 0x21,0x02,0xe8,0x00,0x62,0xfe,0x75,0x00, // 752
0xf9,0x02,0x04,0x05,0x54,0xff,0x3c,0x01, 0x56,0xfe,0x81,0x00,0x3b,0x04,0x38,0xfe, // 768
0x0e,0x00,0xb6,0x02,0xc4,0x02,0xbc,0xfe, 0x77,0xff,0x63,0x01,0xe8,0xfe,0x63,0xfb, // 784
0x46,0xfc,0x1c,0x00,0x92,0xfe,0xe6,0x00, 0x31,0x01,0x6f,0xfe,0xd4,0x03,0x8a,0x00, // 800
0x75,0xfe,0xa5,0x01,0x65,0x02,0x33,0xf9, 0x27,0x01,0xb9,0x00,0xe4,0xff,0xb4,0xff, // 816
0xdb,0x00,0xa0,0x01,0x64,0xfa,0x85,0x01, 0x40,0x00,0x5d,0xfc,0x92,0x03,0x60,0xfd, // 832
0xc1,0xfc,0x96,0x06,0x5b,0x00,0xdb,0xff, 0xda,0x05,0x74,0xfe,0xab,0x00,0x5d,0xff, // 848
0x89,0x00,0x70,0x00,0x85,0xfb,0x29,0x00, 0x55,0x00,0xfa,0xfe,0x9b,0xfe,0xc4,0x05, // 864
0x56,0xfe,0xb6,0xff,0x65,0x02,0x1d,0x00, 0x46,0xff,0x7d,0x01,0xaf,0x03,0x90,0xfb, // 880
0xe8,0xfd,0xe0,0x04,0x2f,0xfd,0x11,0x00, 0x57,0x00,0x05,0x00,0x10,0x00,0x89,0xff, // 896
0xf4,0xff,0xe6,0x05,0x1f,0xf7,0x04,0xff, 0xde,0xfe,0x3e,0x04,0x8c,0xfe,0x32,0x05, // 912
0x01,0xfd,0x5d,0x00,0x48,0x00,0xb5,0xff, 0x14,0x00,0x4e,0xff,0x0c,0x05,0xa3,0xfd, // 928
0xfe,0xfb,0x4b,0x07,0x6c,0xf9,0xa5,0xff, 0x79,0x00,0x93,0x05,0x09,0xfc,0xf7,0x00, // 944
0x6b,0xff,0x43,0x01,0x01,0xfe,0x80,0xfc, 0x66,0x04,0xeb,0xfe,0x9f,0xff,0xad,0x06, // 960
0xd6,0xfd,0x22,0xf9,0xff,0xfc,0x06,0x01, 0x1d,0x01,0x4f,0xfe,0x84,0xff,0x79,0xfb, // 976
0xd1,0x04,0x52,0xfe,0xb3,0x06,0x12,0xfb, 0x94,0xff,0xe1,0x03,0x08,0xff,0x1e,0xff, // 992
0x2e,0xfe,0x79,0xff,0x09,0x01,0xa8,0xfe, 0x13,0x00,0x2a,0x04,0x52,0xfe,0xfe,0xff, // 1008
0x09,0xfb,0x4b,0x05,0x95,0xfd,0xc3,0xfc, 0xe4,0x05,0x58,0x00,0x3c,0xff,0xe1,0xfe, // 1024
0xd4,0x01,0xce,0xfd,0x16,0x00,0xfc,0x03, 0xe2,0xfb,0xe4,0xff,0x65,0xff,0x27,0x00, // 1040
0x2b,0x00,0xf0,0xfd,0xc3,0xfb,0x31,0x06, 0xcd,0xff,0x29,0x00,0x46,0x00,0x16,0xff, // 1056
0xa5,0xfe,0x8a,0x05,0x5f,0xfe,0xc2,0xff, 0x6b,0xf9,0xe8,0x02,0x7c,0x03,0x87,0xfa, // 1072
0x8c,0x04,0xdb,0x00,0xb1,0x00,0x72,0x00, 0x8c,0xff,0x1b,0x00,0x41,0x01,0x97,0x04, // 1088
0x4d,0xfa,0x86,0x00,0x95,0x00,0xf9,0xfe, 0x3d,0x01,0x2a,0x00,0xaf,0xfb,0xa1,0x01, // 1104
0xf6,0xff,0x67,0xfa,0xaa,0x01,0x70,0xff, 0x97,0x00,0x0b,0xff,0x4f,0x00,0x1d,0x04, // 1120
0x5c,0x00,0x39,0x05,0x03,0xf8,0x34,0xfe, 0xf1,0xfe,0x7e,0x04,0x66,0xfe,0xe8,0xfc, // 1136
0xac,0xfe,0x3f,0xfe,0xcd,0x02,0x62,0xf9, 0x3d,0x03,0x2a,0x06,0xf0,0xf9,0x99,0x00, // 1152
0x4c,0x01,0xe8,0xff,0x72,0xff,0x84,0x00, 0x72,0x02,0x25,0x05,0x51,0xfb,0x6c,0x03, // 1168
0xf5,0xfb,0xb7,0x03,0x29,0xfe,0x24,0xfd, 0x9d,0xfb,0xb3,0x04,0xde,0xfd,0x0f,0xfd, // 1184
0x59,0x05,0x4e,0x00,0x56,0xff,0x6f,0x04, 0xb2,0xfe,0x76,0x02,0x6d,0x00,0x65,0x01, // 1200
0x22,0x01,0xc6,0xff,0x8e,0x03,0x88,0xfb, 0x83,0x05,0x15,0xfd,0x95,0x00,0x11,0x00, // 1216
0x90,0xfe,0xf1,0xff,0x8b,0xff,0xef,0x00, 0xfa,0x01,0xec,0xf9,0x73,0x01,0x53,0x00, // 1232
0xb8,0x00,0xea,0xfe,0x22,0x00,0xcc,0x04, 0x09,0xfa,0x0b,0xff,0xe9,0xff,0xa7,0x01, // 1248
0xb8,0xfe,0xdd,0xfe,0xb4,0xfe,0xc8,0x0b, 0x4d,0xfd,0xbb,0x04,0xc4,0x08,0xb6,0xfb, // 1264
0x9e,0xff,0xb6,0x01,0x64,0xff,0x70,0xff, 0x2e,0xf9,0xce,0x00,0x48,0xfe,0x84,0x02, // 1280
0x07,0xff,0x8e,0xfd,0xc1,0x03,0x09,0x01, 0x7b,0xfa,0x54,0x00,0x75,0x00,0xcf,0xff, // 1296
0x20,0x00,0x5a,0xff,0xfb,0x04,0x32,0x01, 0x93,0xff,0x03,0x01,0x60,0xfc,0xae,0x06, // 1312
0x6d,0xfc,0x58,0xff,0x55,0xfb,0x4f,0x00, 0xa6,0x03,0x0d,0xfd,0xa9,0x01,0xde,0x00, // 1328
0xc2,0x04,0x2d,0xf7,0xf5,0x06,0xbd,0x00, 0x3d,0xfe,0x32,0x01,0x72,0x02,0xdc,0x00, // 1344
0xaf,0xfb,0x5b,0xfd,0xa8,0x00,0x7e,0x02, 0x6f,0xfd,0xc0,0x00,0xa2,0x02,0xff,0xfe, // 1360
0x8b,0x01,0x1e,0xfc,0xb0,0x02,0x57,0x02, 0x2e,0xfa,0x37,0xfe,0x3e,0xfb,0x68,0x03, // 1376
0x20,0xfd,0xf0,0x01,0x90,0xfd,0xb6,0xff, 0x73,0x00,0xb9,0x00,0x84,0xfe,0xb2,0x00, // 1392
0x5b,0x02,0x50,0x04,0x33,0xfa,0x46,0x00, 0x6e,0xfd,0x14,0xf2,0xa2,0x06,0xae,0x02, // 1408
0xe1,0xf0,0xf4,0xf9,0x1a,0xf7,0xb0,0xff, 0xca,0xff,0x14,0x00,0x08,0x03,0x82,0xfa, // 1424
0x4f,0x01,0x4d,0x00,0x3c,0x09,0x1a,0x06, 0xec,0x07,0xf8,0x04,0x90,0x07,0x57,0x09, // 1440
0x2a,0x0f,0xa4,0xfb,0xf5,0x04,0xef,0xfc, 0x66,0x00,0x9d,0x00,0xb9,0xff,0x4f,0x01, // 1456
0x58,0xfa,0xbb,0x01,0xfc,0xff,0xf0,0xff, 0x10,0x00,0xc9,0xff,0xf3,0x02,0x62,0xfe, // 1472
0xed,0xfd,0x86,0x00,0x5e,0x01,0x99,0xfd, 0x98,0x01,0x14,0x03,0x42,0x00,0xd8,0xfb, // 1488
0x82,0x02,0xad,0xfc,0x9a,0xff,0xf6,0x05, 0x12,0x07,0xd1,0x05,0xd9,0xfe,0x3f,0x00, // 1504
0x9d,0xff,0xa1,0x00,0x18,0x00,0x46,0xfb, 0x66,0x00,0x47,0xff,0x0b,0x00,0xb7,0x04, // 1520
0xb9,0xf9,0x7f,0xff,0xfb,0xff,0x92,0xfd, 0xc2,0x01,0x01,0x00,0x2c,0xfd,0x2b,0x03, // 1536
0xbb,0xfe,0xf3,0x00,0x48,0x03,0x82,0xfc, 0xee,0x03,0xc7,0xfa,0xdd,0x04,0xb8,0xfd, // 1552
0x8e,0xfe,0x9a,0x09,0x95,0xfb,0xed,0x06, 0x8e,0x02,0x5b,0xfb,0x9c,0x06,0x09,0x02, // 1568
0x38,0x03,0x51,0x01,0xe6,0x00,0x6d,0xfe, 0x23,0x05,0x1e,0xfc,0x0f,0xf9,0x76,0x04, // 1584
0x27,0xfa,0x3f,0x04,0xf1,0xfd,0x8f,0x00, 0xfe,0xff,0x66,0xff,0x95,0x02,0x56,0x00, // 1600
0x0a,0xff,0xd4,0x01,0xe4,0x03,0x2d,0xfb, 0x7d,0xfd,0x51,0xf8,0x6f,0xfa,0xa3,0xfc, // 1616
0xa1,0xfb,0x83,0xf9,0xf2,0xf5,0xee,0xf1, 0xfd,0x02,0x78,0xfe,0xfd,0xfe,0xfa,0x02, // 1632
0x93,0xfc,0xb0,0x03,0x97,0x00,0x62,0x06, 0x46,0xfd,0xdf,0xfc,0x58,0x03,0xb8,0xfd, // 1648
0xf1,0xfe,0x43,0xfb,0xd2,0xfa,0xd2,0x05, 0xbf,0xff,0x46,0xff,0x63,0x01,0xe3,0xff, // 1664
0xaa,0xfd,0x34,0xfa,0x09,0xfe,0x1c,0x02, 0x9a,0x00,0x17,0xff,0xd7,0xff,0x68,0x02, // 1680
0x21,0x09,0x6f,0xff,0x93,0xff,0x0a,0x05, 0x81,0x06,0x06,0x06,0x17,0x06,0x1a,0x00, // 1696
0x4a,0x00,0x2c,0xff,0x8a,0xfe,0x63,0x05, 0x7c,0xfe,0xcd,0xff,0x7d,0xff,0xdc,0x00, // 1712
0x0f,0xff,0x5e,0xff,0x53,0x04,0x85,0xfe, 0xfd,0xff,0x43,0xff,0xc8,0xff,0x43,0x00, // 1728
0xa0,0x01,0xb8,0xfa,0xd5,0x03,0xe7,0x00, 0xe2,0xfb,0x21,0x00,0x18,0x00,0x7b,0x00, // 1744
0x2d,0xfd,0xa9,0xff,0x70,0x00,0xb7,0xff, 0xe4,0xff,0xfb,0xff,0xb5,0xff,0xbd,0x05, // 1760
0xb8,0xfb,0x58,0x00,0xd5,0x06,0x20,0xfd, 0xed,0x02,0xbb,0xfd,0x41,0x01,0xad,0x02, // 1776
0x8e,0xfd,0x71,0x04,0xa7,0xfe,0x86,0x02, 0x4d,0x01,0xc8,0x02,0x1d,0xfe,0xac,0xff, // 1792
0x56,0x00,0x12,0x00,0x1c,0x00,0xaa,0xff, 0x13,0xfb,0x52,0x04,0x9a,0xff,0x8d,0xff, // 1808
0x14,0x01,0x38,0xff,0x95,0xfe,0x5e,0x04, 0xc2,0xfc,0x8c,0xff,0xa5,0x05,0x07,0xfd, // 1824
0x67,0x00,0x09,0x00,0xe6,0xff,0x0c,0x00, 0xd4,0xfe,0x0e,0xfd,0x7f,0xfd,0xa2,0x00, // 1840
0xc0,0x00,0x75,0xff,0x25,0x00,0xcb,0x04, 0x35,0x00,0x59,0x08,0x66,0xfe,0xcb,0xfb, // 1856
0xa3,0x04,0xf2,0xfe,0xb7,0xfc,0xa6,0xff, 0x71,0x01,0xfd,0xfe,0x3d,0xfe,0xad,0xfb, // 1872
0x78,0x05,0x72,0xff,0xec,0xfd,0x51,0xfe, 0xea,0xff,0xd8,0x00,0x45,0xfc,0x37,0x03, // 1888
0x8d,0x05,0xf4,0x06,0xa7,0xfc,0xba,0xfc, 0x6b,0x05,0x73,0xfb,0x0d,0xff,0x4c,0xff, // 1904
0x61,0x09,0xb9,0x03,0x55,0xfa,0x0d,0x01, 0x4c,0x01,0x13,0x0b,0xe6,0xfd,0xda,0x05, // 1920
0x88,0xff,0xf5,0xfe,0xc4,0xff,0x89,0x00, 0xe2,0xff,0xeb,0xfd,0x65,0x07,0x3e,0xff, // 1936
0xff,0xfe,0xad,0x04,0x22,0x03,0x4c,0xf4, 0xde,0xf7,0xf2,0xff,0xed,0x01,0x3a,0xff, // 1952
0x53,0xfb,0x84,0x06,0x3c,0x00,0x0a,0xff, 0xb6,0x04,0x39,0xfd,0x28,0x00,0x3c,0x00, // 1968
0x0f,0x00,0x0e,0x00,0x86,0xff,0x1d,0x00, 0x5c,0x00,0x07,0xff,0x64,0xfe,0xf3,0x05, // 1984
0x6b,0xfe,0xc3,0xff,0x3d,0x05,0x6f,0x00, 0x46,0x02,0x55,0x03,0x7a,0x04,0x69,0xfd, // 2000
0x2c,0x00,0x2c,0x03,0x66,0xfa,0x4f,0x03, 0x97,0xfe,0x78,0x00,0xe2,0xff,0x4c,0x00, // 2016
0xc8,0x04,0x0f,0xfd,0x27,0x00,0x4d,0x00, 0xf5,0xff,0x19,0x00,0xa8,0xff,0xfd,0xfa, // 2032
0xe8,0x02,0xb0,0xff,0xab,0xff,0x53,0x00, 0xe9,0xff,0xa3,0x00,0xdf,0xfd,0x95,0x04, // 2048
0x71,0xfd,0x9a,0x00,0xa9,0x00,0x1a,0xff, 0x7c,0xfe,0x4d,0xfb,0x26,0x02,0xe0,0x03, // 2064
0xfb,0xf8,0x5f,0x06,0x47,0x00,0x83,0xff, 0x12,0xfa,0x09,0x02,0xa8,0xff,0x5a,0x00, // 2080
0x76,0xff,0x2d,0x00,0x4e,0x03,0xf4,0xfc, 0xa2,0xfe,0x16,0xff,0xe4,0x01,0xd8,0xfa, // 2096
0xa4,0x03,0xcc,0x06,0xff,0x00,0xfa,0xff, 0xd9,0xff,0x9c,0xfe,0xff,0x04,0x2d,0xfc, // 2112
0xf9,0xfe,0x54,0x00,0x41,0x00,0xbb,0xff, 0x50,0xfd,0x47,0x05,0xb3,0xfe,0xb2,0xff, // 2128
0x60,0xff,0x5f,0xf6,0x70,0x01,0x55,0x06, 0x4f,0xf6,0xde,0xfe,0x44,0xfe,0x68,0xfa, // 2144
0xa8,0x01,0xea,0xfc,0xe7,0xff,0xb9,0xfd, 0x04,0xfe,0x14,0x00,0xc6,0xfa,0x01,0x03, // 2160
0xdb,0xff,0xc1,0xff,0xd6,0xff,0x12,0x00, 0xbd,0x00,0xaf,0x00,0x2f,0xfe,0xa7,0x00, // 2176
0x84,0x05,0xd5,0xf8,0xf9,0xfe,0x61,0x00, 0xbc,0xfa,0x97,0x03,0x88,0xff,0xed,0xff, // 2192
0xfb,0xff,0xe8,0xff,0x3c,0x00,0xe5,0xfd, 0x54,0x00,0x62,0xf9,0xc8,0x04,0xd8,0xfe, // 2208
0xa1,0xff,0x17,0x03,0xfb,0x02,0xa2,0xfa, 0x71,0xff,0xc2,0x02,0xab,0xfb,0xd9,0x01, // 2224
0xaf,0x05,0x43,0xff,0x14,0x02,0xbf,0xfe, 0x4c,0xfd,0x3c,0xfc,0xd6,0x05,0x76,0xff, // 2240
0x03,0x05,0x43,0xfd,0x2d,0x00,0x02,0x00, 0x67,0x00,0xad,0xff,0xf7,0xfe,0xc4,0xf6, // 2256
0xdf,0xf6,0x30,0xfe,0x97,0xf8,0xd6,0xf7, 0xd0,0xf9,0x88,0xfc,0x60,0xfd,0x18,0x04, // 2272
0xd2,0x00,0x30,0xf8,0x7a,0x08,0x3c,0x00, 0x93,0xfd,0xa1,0xfc,0xd6,0x03,0x62,0xff, // 2288
0xa1,0xfc,0xdc,0x05,0x40,0xff,0x75,0xfe, 0x10,0xfc,0x91,0x00,0xa4,0x01,0x18,0x01, // 2304
0x6e,0x00,0xca,0x06,0x12,0x00,0x03,0x01, 0x3c,0x00,0xee,0x00,0x1d,0xfe,0xf3,0x07, // 2320
0xea,0x0e,0xa7,0x07,0x76,0xfe,0x55,0xff, 0x24,0x00,0x66,0x00,0x4a,0x07,0x09,0x00, // 2336
0x39,0xf0,0xac,0xfd,0xfe,0xfe,0x34,0xfd, 0x9f,0xff,0xae,0x07,0xb0,0xf9,0x77,0xf7, // 2352
0x77,0xfe,0x79,0xff,0xd7,0x07,0x82,0x00, 0x0a,0xff,0xdc,0xf6,0xa1,0xf8,0x6a,0x0a, // 2368
0xba,0xff,0xa5,0x07,0xcd,0xfd,0x8a,0x05, 0x5e,0xf6,0x67,0x06,0xa5,0x06,0xc9,0x00, // 2384
0x79,0xf0,0xaa,0xfc,0xc5,0x02,0x3e,0x07, 0x59,0x04,0xc7,0xff,0x57,0x03,0x55,0x07, // 2400
0x43,0xf7,0xf5,0xfd,0xb2,0xf8,0xa2,0xff, 0x8e,0xf6,0x35,0x09,0x24,0xf7,0xc0,0x00, // 2416
0xfd,0x03,0x91,0xfb,0x52,0x02,0x05,0xf8, 0xf1,0xf6,0xc7,0x06,0x2c,0xfe,0xa7,0xff, // 2432
0x46,0x00,0xd1,0x00,0x86,0xff,0x7d,0xf3, 0x33,0xf5,0x0b,0x00,0xad,0xfd,0x57,0x03, // 2448
0x66,0xec,0x4e,0xfb,0x34,0xfe,0x34,0xff, 0x52,0xfc,0xfd,0xff,0x75,0x0f,0xc9,0xff, // 2464
0x6b,0xf7,0xe3,0xff,0xec,0xff,0xdd,0xf6, 0x12,0xf6,0xb4,0x01,0x3e,0xfd,0xd6,0xf7, // 2480
0x51,0x01,0x81,0x01,0x8d,0xf3,0x99,0xf2, 0x8e,0xf7,0x1a,0x07,0xdd,0x06,0xda,0xff, // 2496
0xb9,0xfe,0xe0,0x03,0x78,0x00,0x7d,0xf8, 0x51,0xfd,0xb0,0xff,0xba,0x06,0x43,0xff, // 2512
0x15,0x08,0xc1,0xfc,0xf1,0x07,0xd5,0x08, 0xd3,0x08,0xac,0x09,0x55,0xef,0xd7,0x08, // 2528
0x44,0x05,0xf6,0x07,0x59,0xf3,0xe1,0xff, 0x7d,0x05,0xb5,0xf9,0x5f,0xfe,0xc6,0xf9, // 2544
0xea,0xfc,0xb9,0x09,0xe9,0xff,0xac,0x04, 0x21,0xfb,0x10,0x04,0x6e,0xfa,0x19,0xf5, // 2560
0xc5,0xf9,0x69,0xfb,0xfe,0x0e,0x0a,0xfd, 0x15,0x05,0x98,0x05,0x4c,0x04,0xb8,0x00, // 2576
0x43,0x4d,0x44,0x00,0x20,0x03,0x80,0x00, 0x10,0x0a,0x00,0x00,0x10,0x0a,0x00,0x00, // 2592
0x01,0x01,0x00,0x02,0x0c,0x00,0x00,0x00, 0x00,0x00,0x00,0x00,0x00,0x00,0x00,0x00, // 2608
0x01,0x00,0x8c,0x00,0x01,0x00,0x01,0x00, 0x8c,0x00,0x01,0x00,0x00,0x00,0x00,0x00, // 2624
0x0d,0x00,0xff,0xff,0xff,0xff,0xff,0xff, 0x00,0x00,0x00,0x00,0x00,0x00,0x00,0x00, // 2640
0x00,0x00,0x00,0x00,0x00,0x00,0x00,0x00, 0x00,0x00,0x00,0x00,0x00,0x00,0x00,0x00, // 2656
0x00,0x00,0x00,0x00,0x00,0x00,0x00,0x00, 0x00,0x00,0x00,0x00,0x00,0x00,0x00,0x00, // 2672
0x00,0x00,0x00,0x00,0x00,0x00,0x00,0x00, 0x00,0x00,0x00,0x00,0x00,0x00,0x00,0x00, // 2688
0x00,0x00,0x00,0x00,0x00,0x00,0x00,0x00, 0x00,0x00,0x00,0x00,0x00,0x00,0x00,0x00, // 2704
0x43,0x4d,0x44,0x00,0x20,0x05,0x00,0x00, 0x90,0x0a,0x00,0x00,0x10,0x02,0x00,0x00, // 2720
0x01,0x00,0x00,0x02,0x0d,0x08,0x0b,0x07, 0x00,0x00,0x00,0x00,0x00,0x00,0x00,0x00, // 2736
0x01,0x00,0x8c,0x00,0x01,0x00,0x01,0x00, 0x64,0x00,0x01,0x00,0x00,0x00,0x00,0x00, // 2752
0x0c,0x00,0xff,0xff,0xff,0xff,0xff,0xff, 0x00,0x00,0x01,0x00,0xc8,0x00,0x00,0x00, // 2768
0x00,0x01,0x02,0x00,0x18,0x01,0x00,0x00, 0x00,0x00,0x00,0x00,0x00,0x00,0x00,0x00, // 2784
0x00,0x00,0x00,0x00,0x00,0x00,0x00,0x00, 0x00,0x00,0x00,0x00,0x00,0x00,0x00,0x00, // 2800
0x00,0x00,0x00,0x00,0x00,0x00,0x00,0x00, 0x00,0x00,0x00,0x00,0x00,0x00,0x00,0x00, // 2816
0x00,0x00,0x00,0x00,0x00,0x00,0x00,0x00, 0x60,0x6d,0x00,0x00,0xc8,0x00,0x00,0x00, // 2832
0x05,0x00,0x7a,0xff,0xca,0xff,0x15,0x00, 0x21,0x00,0xff,0xff,0x4a,0x00,0xc9,0xff, // 2848
0xc4,0xff,0xe5,0xff,0x46,0x00,0xe0,0xff, 0x08,0x00,0xc2,0xfd,0xd5,0xff,0xc7,0xff, // 2864
0x0e,0x00,0xb2,0xff,0xf9,0xff,0x51,0x00, 0x9c,0xff,0x11,0x00,0x01,0x00,0x34,0x00, // 2880
0x11,0x00,0xf8,0xff,0x07,0x00,0x23,0x00, 0x15,0x00,0xf6,0xff,0xe4,0xff,0x03,0x00, // 2896
0xfa,0xff,0xd4,0x00,0x6c,0x02,0xe2,0xff, 0xdd,0xff,0xc1,0xfd,0xc0,0xff,0xf7,0xff, // 2912
0xfb,0xff,0xf4,0xff,0xe6,0xff,0xdd,0xff, 0x10,0x00,0x50,0x00,0x24,0x00,0xe3,0xff, // 2928
0x04,0x00,0x27,0x00,0xfd,0xff,0xa2,0xfd, 0x22,0x00,0xd9,0xff,0x25,0x00,0x39,0x00, // 2944
0x08,0x00,0x04,0x00,0xfe,0xff,0x91,0xff, 0x00,0x00,0x34,0x00,0xe5,0xff,0x33,0x02, // 2960
0x78,0x00,0xda,0xff,0x5e,0x00,0xeb,0xff, 0x16,0x00,0xbd,0xff,0x14,0x00,0x39,0x00, // 2976
0xf8,0xff,0xac,0xff,0xc4,0xff,0x96,0xff, 0xfe,0xff,0x60,0x00,0x8f,0x00,0x41,0x00, // 2992
0x14,0x00,0xfe,0xff,0x22,0x00,0xd9,0xff, 0x80,0x00,0x15,0x00,0x6a,0xff,0x7d,0x00, // 3008
0xf2,0xff,0xe1,0xff,0xcf,0xff,0x45,0xff, 0x13,0x00,0x02,0x00,0x1e,0x00,0xfa,0xff, // 3024
0xc3,0xff,0x8f,0xfd,0xd3,0xff,0x48,0x00, 0xed,0xff,0xcc,0xff,0x06,0x00,0x25,0x00, // 3040
0x49,0x00,0xf6,0xff,0xf0,0xff,0x03,0x00, 0x2f,0x00,0x6b,0x00,0x17,0x00,0xe4,0xff, // 3056
0xed,0xff,0xfe,0xff,0xb5,0xff,0xcf,0xff, 0xef,0xff,0xe8,0xfd,0x2f,0x00,0xec,0xff, // 3072
0xf7,0xff,0x13,0x00,0xf0,0xff,0x1c,0x00, 0x1b,0x00,0x08,0x00,0x8c,0xff,0x9d,0xff, // 3088
0x14,0x00,0xc1,0xff,0x0f,0x00,0x4c,0x00, 0x17,0x00,0xe4,0xff,0x09,0x00,0x5d,0x00, // 3104
0xe5,0xff,0xa4,0xff,0xe5,0xff,0xff,0xff, 0x9e,0xff,0xfe,0xff,0xa5,0xff,0xf3,0xff, // 3120
0xff,0xff,0xd2,0x00,0x32,0x00,0x96,0x01, 0x97,0x00,0xa9,0x00,0x3d,0xff,0xac,0xff, // 3136
0xd3,0x01,0xf6,0xff,0xed,0xff,0xc6,0x00, 0xfc,0xff,0x7b,0x00,0x25,0x00,0xc8,0x00, // 3152
0x0e,0x00,0xae,0xff,0x79,0x00,0x05,0x00, 0x0e,0x00,0x98,0xff,0xae,0x00,0x15,0xff, // 3168
0x5e,0xff,0x4e,0xff,0x13,0x00,0xa6,0xff, 0x70,0x00,0x4a,0x00,0x28,0x00,0xb6,0xff, // 3184
0x03,0x00,0xff,0xff,0xc8,0xff,0xdf,0xff, 0xfe,0xff,0x6e,0xff,0x09,0x01,0x4d,0x01, // 3200
0x5c,0x00,0x29,0x00,0x97,0x00,0x1c,0x00, 0xb3,0xff,0x1d,0x00,0x60,0x00,0xf9,0xff, // 3216
0x1a,0xff,0x8e,0xff,0xe4,0xff,0x12,0x00, 0xfd,0xff,0x67,0x02,0x7f,0x00,0x3d,0x00, // 3232
0xb7,0xff,0xb3,0xff,0xc0,0xff,0x22,0x00, 0x0e,0x00,0x2a,0x00,0x42,0x00,0xf7,0xff, // 3248
0x02,0x00,0x06,0x00,0x0e,0xff,0x34,0xfe, 0x63,0x00,0xdc,0xff,0x9f,0x01,0xd0,0xff, // 3264
0x49,0x00,0xe4,0xff,0x6e,0x00,0xdf,0xff, 0x48,0x00,0xab,0x00,0x6a,0x00,0xe2,0xff, // 3280
0x03,0x00,0x16,0x00,0x2d,0xff,0x50,0x00, 0xaf,0xfe,0xc3,0xff,0xe6,0xff,0xfc,0xff, // 3296
0x1e,0x00,0xa4,0x00,0x06,0xff,0x7b,0x00, 0xf9,0xff,0xfe,0xff,0x12,0x00,0x0b,0x00, // 3312
0x46,0x00,0xe4,0xff,0xcf,0xff,0x85,0xff, 0x06,0x00,0x3e,0x00,0x7f,0xff,0x72,0x00, // 3328
0xaf,0xff,0x35,0x00,0xe2,0x00,0xd8,0x00, 0x77,0x00,0x4a,0xff,0x50,0x00,0xee,0xff, // 3344
0xf7,0xff,0xdb,0xff,0x91,0xff,0x2f,0x00, 0x0b,0x00,0x9b,0x00,0xea,0xff,0x04,0xff, // 3360
0x18,0x00,0x36,0x01,0xd6,0xff,0x15,0x00, 0xca,0x00,0x4f,0x00,0x1e,0x00,0x18,0x00, // 3376
0xe4,0xff,0x1d,0x00,0xc1,0x00,0x37,0x00, 0x04,0x00,0x36,0x00,0x4f,0xff,0x99,0xff, // 3392
0x00,0x00,0x03,0x00,0x56,0x07,0xed,0xff, 0x13,0x00,0x71,0x00,0xa9,0xff,0x1a,0x00, // 3408
0x37,0x00,0x03,0x00,0x41,0x00,0xe8,0xff, 0xdf,0xff,0x01,0x00,0x4b,0x00,0xde,0xff, // 3424
0x47,0xff,0x2a,0x00,0x06,0x00,0xd6,0xff, 0x00,0x00,0x03,0x00,0xbe,0xff,0xec,0xff, // 3440
0xc9,0xff,0x09,0x00,0xbf,0xff,0x0a,0x00, 0x14,0x00,0xea,0xff,0x00,0x00,0xe1,0xff, // 3456
0xdc,0xff,0xfd,0xff,0xfd,0xff,0xf3,0xff, 0xd8,0xff,0x02,0x00,0xec,0xff,0x29,0x00, // 3472
0xfb,0xff,0x43,0x00,0xde,0xff,0x34,0x00, 0xfd,0xff,0xea,0xff,0x30,0x00,0xf8,0xff, // 3488
0xf3,0xff,0xd9,0xff,0xff,0xff,0x0c,0x00, 0x12,0x00,0xf0,0xff,0xf8,0xff,0xe3,0xff, // 3504
0x00,0x00,0x24,0x00,0x40,0x00,0x07,0x00, 0xfc,0xff,0x1d,0x00,0x84,0x08,0xfb,0xff, // 3520
0x09,0x00,0xd6,0xff,0x23,0x00,0xe2,0xff, 0x28,0x00,0xf1,0xff,0x23,0x00,0xde,0xff, // 3536
0xef,0xff,0x47,0x00,0xe4,0xff,0x0c,0x00, 0x1b,0x00,0xe1,0xff,0x09,0x00,0xd1,0xfe, // 3552
0xba,0xff,0x08,0x00,0x1f,0x00,0x02,0x00, 0xfb,0xff,0xf1,0xff,0x1a,0x00,0x0f,0x00, // 3568
0xbe,0xff,0x82,0x03,0xf4,0xff,0xb2,0xff, 0xba,0xff,0xdb,0xff,0x21,0x00,0x49,0x00, // 3584
0x0f,0x00,0x02,0x00,0x05,0x00,0xfa,0xff, 0xe6,0xff,0x25,0x00,0x08,0x00,0xfd,0xff, // 3600
0xeb,0xff,0xf5,0xff,0x6e,0x00,0x15,0x00, 0xdd,0xff,0xe7,0xff,0x4b,0x00,0xe0,0xff, // 3616
0x9f,0xff,0xbb,0xff,0xf1,0xff,0xf8,0xff, 0x2f,0x00,0x02,0x00,0x0d,0x00,0x5c,0x01, // 3632
0x33,0x00,0x99,0xff,0xeb,0xff,0x2b,0x00, 0xaf,0xff,0x33,0x00,0xff,0xff,0x11,0x00, // 3648
0x34,0x00,0xb8,0xff,0xc8,0xff,0xf5,0xff, 0xe6,0xff,0x8e,0xfe,0x31,0x00,0xde,0xff, // 3664
0x24,0x00,0xc2,0xff,0x00,0x00,0x00,0x00, 0x21,0x00,0xdc,0x00,0x52,0xff,0x9b,0xfc, // 3680
0x75,0x00,0xbb,0x01,0x76,0xff,0x24,0x02, 0xe7,0xff,0xc7,0x00,0xe7,0xff,0x85,0x00, // 3696
0xc4,0xfe,0x83,0x00,0x23,0xfe,0x81,0x01, 0x4b,0x00,0x07,0x00,0x2a,0x00,0x86,0x00, // 3712
0x3b,0x00,0xfa,0xff,0x22,0x00,0xcf,0xff, 0x6d,0xff,0x0f,0x01,0xbe,0xfe,0x92,0x00, // 3728
0xaa,0xff,0x2a,0xff,0x28,0x00,0x63,0x00, 0x25,0x00,0x67,0xff,0x72,0xff,0x96,0x00, // 3744
0xf0,0x01,0x95,0x00,0x44,0x00,0x43,0x02, 0x7d,0x00,0x44,0x01,0xec,0xff,0x9e,0x02, // 3760
0xb4,0x00,0x9e,0x00,0xfb,0x01,0x3e,0x00, 0x76,0x00,0x69,0x00,0xdf,0xff,0x7e,0x00, // 3776
0x88,0x00,0x0d,0x00,0xd6,0xff,0x3e,0xfd, 0x65,0x00,0x99,0xfe,0x24,0xff,0x91,0x01, // 3792
0x4c,0x00,0xa0,0xff,0xf1,0xfe,0x4b,0xff, 0xb7,0xff,0x3b,0x01,0xb2,0x01,0xbe,0xff, // 3808
0x31,0xfe,0x1f,0x01,0xfd,0xfd,0x0c,0x00, 0x4e,0xff,0xb7,0x00,0x82,0xfe,0xb1,0xff, // 3824
0x16,0x00,0x9d,0xff,0x6a,0xff,0x21,0x00, 0xbc,0xfe,0xd9,0xfe,0x95,0xff,0x2f,0x02, // 3840
0x9d,0xff,0x27,0x00,0x0a,0x00,0xdb,0xfe, 0x29,0x01,0x58,0x00,0x0f,0x00,0x81,0x00, // 3856
0xb2,0x01,0x8b,0x01,0x89,0xff,0x12,0xff, 0x46,0x01,0x75,0x00,0x34,0x00,0x4f,0xff, // 3872
0x0f,0xff,0x3b,0x00,0xd6,0x00,0xcd,0xff, 0xd3,0xff,0x92,0x00,0x4f,0x01,0x06,0x00, // 3888
0xeb,0x00,0x69,0x00,0xf5,0xfe,0x88,0xff, 0x4c,0x01,0xe6,0x00,0x76,0x01,0x49,0x00, // 3904
0x90,0x02,0x73,0x00,0xe0,0xff,0x17,0x00, 0x72,0x02,0xec,0xfe,0x80,0xff,0x26,0x00, // 3920
0xdd,0xfd,0x74,0xfe,0x00,0x01,0x8a,0x00, 0x1b,0x00,0x39,0x00,0x8f,0xfd,0xa3,0xff, // 3936
0x91,0xfd,0xb4,0x00,0x34,0xff,0x7f,0x00, 0x62,0x02,0x06,0x00,0xcc,0xff,0x3f,0x00, // 3952
0xaf,0xff,0x17,0x00,0x00,0x00,0xfe,0xff, 0xdb,0xff,0x1e,0x00,0xd6,0xff,0x92,0xff, // 3968
0x07,0x00,0x24,0x00,0x04,0x00,0x58,0x00, 0x95,0xff,0x79,0x00,0x9f,0x00,0xe9,0xff, // 3984
0x47,0x00,0x61,0xff,0x34,0x02,0x33,0x00, 0xe8,0xff,0xc9,0xff,0x0c,0x00,0x3a,0xff, // 4000
0xf6,0xff,0xec,0xff,0x18,0x00,0x1c,0x00, 0xf9,0xff,0x02,0x00,0xa4,0x01,0x0d,0x00, // 4016
0x0b,0x00,0x6e,0xff,0x8e,0xff,0x40,0x00, 0x00,0x00,0x9c,0x00,0x35,0x00,0x38,0x00, // 4032
0x23,0x00,0xd2,0xff,0xc9,0xff,0x96,0xff, 0x88,0xff,0xa9,0xff,0xe6,0xfe,0xfb,0x01, // 4048
0x41,0x00,0xcc,0xff,0x57,0x00,0x5b,0x00, 0x0a,0x00,0x9c,0xff,0xc7,0xfd,0xfb,0xff, // 4064
0x06,0x00,0x9a,0xff,0x40,0x00,0x71,0x00, 0x61,0x00,0x1e,0x00,0xfd,0xff,0x8b,0xff, // 4080
0xf3,0xff,0xef,0xff,0xc5,0xff,0xee,0xff, 0x0d,0x00,0xcd,0xff,0x78,0x00,0x17,0x00, // 4096
0x13,0x00,0x16,0x00,0x2e,0x00,0x55,0x00, 0xa1,0xff,0x1b,0x00,0x64,0x00,0x05,0x00, // 4112
0x27,0x00,0xf0,0xff,0x20,0x00,0xef,0xff, 0x1a,0x00,0x3e,0x00,0xe1,0xff,0xe4,0xff, // 4128
0x09,0x00,0x7b,0xff,0x59,0x00,0xcc,0xff, 0x64,0xff,0x5b,0xff,0xed,0xff,0x24,0x00, // 4144
0xaa,0xff,0x7b,0x00,0x4b,0x03,0xe4,0xff, 0x04,0x00,0x18,0x01,0xf5,0xff,0x40,0x00, // 4160
0x29,0xff,0x2b,0x00,0xdb,0xff,0xef,0xff, 0xe6,0xff,0xad,0xff,0x0a,0x00,0xee,0xff, // 4176
0xc4,0xff,0xd0,0xff,0x0e,0x00,0x29,0x00, 0x33,0x00,0x6c,0x00,0x2e,0x00,0xcf,0xff, // 4192
0x44,0x00,0x14,0x00,0x9b,0x00,0x24,0x00, 0x21,0x00,0xdb,0xff,0x0a,0x00,0xcc,0xff, // 4208
0xcc,0xff,0xd6,0xff,0xc9,0xff,0xc9,0xff, 0xc8,0xff,0x16,0x00,0x38,0x00,0xc2,0xff, // 4224
0x16,0x00,0x0b,0x00,0xd0,0x00,0x81,0x00, 0x26,0x00,0x34,0x00,0x9d,0xff,0xe4,0xff, // 4240
0x37,0x00,0x2d,0x00,0xfd,0x00,0xe5,0xff, 0x94,0xff,0x25,0x00,0xdc,0xff,0xdf,0xff, // 4256
0x0d,0x00,0x81,0xfa,0x32,0x00,0xc7,0x00, 0xed,0xff,0x86,0xff,0xd6,0xff,0xb3,0xff, // 4272
0xa9,0x00,0x0e,0x00,0xe2,0xff,0x20,0x00, 0xc4,0xff,0xe9,0xff,0xe7,0xff,0xf2,0xff, // 4288
0x6c,0x00,0x39,0x00,0xeb,0xff,0x35,0x00, 0xd5,0xff,0xd0,0x00,0x73,0x06,0xd5,0xff, // 4304
0x2a,0x00,0x8c,0xf9,0x8d,0xff,0x1f,0x00, 0x6d,0x00,0x11,0x00,0x08,0x00,0xf3,0xff, // 4320
0xd6,0xff,0x2b,0x00,0xaa,0xff,0xda,0xff, 0xc5,0xff,0x54,0x00,0xd6,0xff,0x87,0xf8, // 4336
0x0e,0x00,0x12,0x00,0x38,0x00,0x8f,0xff, 0x7c,0x00,0x12,0x00,0x24,0x00,0xdb,0xff, // 4352
0xd2,0xff,0xb2,0xff,0xc7,0xff,0xb5,0x03, 0xb9,0xff,0x2b,0x00,0xd1,0xff,0xb5,0xff, // 4368
0x6a,0xff,0x74,0x00,0xf2,0xff,0xe3,0xff, 0x02,0x00,0xe0,0xfe,0x0a,0x00,0xc1,0xff, // 4384
0xd5,0xff,0xd7,0xff,0x55,0xff,0x1c,0x00, 0xd2,0xff,0xd3,0xff,0x17,0x00,0x95,0x00, // 4400
0xd5,0xff,0x88,0x00,0x44,0x00,0x05,0x00, 0x03,0x00,0xf5,0xff,0x94,0xff,0x7b,0x00, // 4416
0xb3,0xff,0x05,0x00,0xda,0xff,0x03,0x00, 0xc9,0xff,0x14,0xf9,0xbd,0xff,0xc8,0xff, // 4432
0xef,0xff,0xad,0xff,0xe9,0xff,0xca,0xff, 0x35,0x00,0x83,0x00,0x0d,0x00,0xc5,0xff, // 4448
0xed,0xff,0x3a,0x00,0x11,0x00,0x0e,0x00, 0xbf,0xff,0xe2,0xff,0x7e,0xff,0x1d,0x00, // 4464
0x15,0x00,0x88,0xfa,0x9b,0xff,0x14,0x00, 0x15,0x00,0xed,0xff,0x49,0x00,0xf6,0xff, // 4480
0xd5,0xff,0xfa,0xff,0x31,0x00,0x32,0x00, 0x36,0x00,0x42,0x00,0xda,0xff,0xc5,0xff, // 4496
0xd0,0xff,0x10,0x00,0x1a,0x00,0x39,0x00, 0x0e,0x00,0x39,0x00,0xc1,0xff,0xce,0xff, // 4512
0xac,0xff,0xea,0xff,0xf0,0xff,0x9c,0x00, 0xce,0xff,0xc4,0x00,0xa8,0xff,0x17,0x00, // 4528
0x45,0x00,0x93,0xff,0x2c,0xfd,0xfd,0xff, 0xbc,0x00,0x86,0xff,0x33,0x00,0x9b,0xff, // 4544
0x81,0xff,0xdc,0xff,0xe3,0xff,0xa4,0xff, 0x97,0x00,0x8e,0xff,0xea,0xff,0xfb,0xff, // 4560
0xf5,0xff,0x91,0x00,0x81,0xff,0x1b,0x00, 0xce,0xff,0x0e,0x00,0xe2,0xff,0x27,0x00, // 4576
0xff,0xff,0x69,0x00,0x5a,0x00,0xde,0xff, 0xd2,0xff,0x85,0xff,0xdf,0xfe,0x98,0xff, // 4592
0x06,0x00,0x72,0x00,0xb4,0xff,0xb5,0xff, 0x98,0xfe,0xab,0xff,0x90,0xff,0xd4,0xff, // 4608
0x10,0x00,0xd6,0xff,0x64,0x00,0x83,0xff, 0xf9,0xff,0x9e,0xff,0x2b,0x00,0xc9,0xff, // 4624
0x0c,0x00,0xb2,0x00,0x98,0xff,0xd4,0xff, 0x18,0x00,0xfc,0xfb,0xea,0xff,0x6f,0x00, // 4640
0x01,0x00,0x5d,0x00,0x96,0xff,0x07,0x00, 0x2e,0x00,0x9f,0xff,0x89,0x00,0xa8,0xff, // 4656
0xcf,0xff,0x43,0x00,0x72,0x00,0x3d,0x00, 0xc1,0x00,0x07,0x00,0xb8,0xff,0x0b,0x00, // 4672
0xbd,0xff,0xef,0xff,0x52,0x02,0xe0,0xff, 0xea,0xff,0x0a,0x00,0x13,0x00,0x1f,0xff, // 4688
0x1f,0xff,0x09,0x00,0xd4,0xfe,0x94,0x00, 0xc1,0xff,0x6d,0xff,0xa8,0xfe,0xde,0xff, // 4704
0x9a,0xff,0x8a,0xff,0xdb,0xff,0x3d,0x00, 0xb4,0x00,0x08,0x00,0x80,0xff,0xc3,0xfb, // 4720
0xfd,0xff,0xa4,0xff,0x81,0x00,0xef,0xff, 0x1e,0x00,0xc0,0xff,0x66,0x01,0xd2,0xff, // 4736
0x78,0xff,0x69,0x00,0x94,0xfd,0xed,0xff, 0xbe,0xff,0x85,0xff,0x60,0xfb,0x89,0x00, // 4752
0xaa,0xff,0x8a,0xff,0x61,0xff,0x7c,0x00, 0xa9,0xff,0x00,0x01,0xe9,0xff,0xfc,0xff, // 4768
0x89,0x00,0xcb,0x02,0x1e,0x00,0x0b,0x00, 0x12,0x00,0xff,0xff,0x50,0x01,0xb9,0xff, // 4784
0xc3,0xff,0x01,0x00,0x8e,0x00,0x3e,0x00, 0x18,0x00,0xe2,0xff,0x09,0x00,0x31,0x00, // 4800
0x17,0x00,0x4d,0xff,0x10,0x00,0xf3,0xff, 0xcc,0xff,0x0b,0x00,0xf4,0xff,0xb0,0x02, // 4816
0x1e,0x00,0x29,0x00,0x13,0x00,0x36,0x00, 0x0d,0x00,0x4b,0x00,0x03,0x00,0x67,0x00, // 4832
0x83,0x00,0x19,0x00,0xf8,0xff,0xef,0xff, 0xc9,0xff,0x19,0x00,0xf8,0xff,0xb9,0xff, // 4848
0xe8,0xff,0x2c,0x00,0x13,0x00,0x03,0x00, 0xee,0xff,0x63,0xff,0xe2,0xff,0xe0,0x01, // 4864
0xec,0xff,0x2a,0x00,0x0d,0x00,0x1c,0x00, 0xe7,0xff,0xf8,0xff,0x46,0x00,0xfc,0xff, // 4880
0xef,0xff,0xec,0xff,0xe9,0xff,0x15,0x00, 0xf3,0x03,0xfa,0xff,0xe5,0xff,0x2c,0x00, // 4896
0xad,0xff,0x18,0x00,0xee,0xff,0x0f,0x00, 0xec,0xff,0x30,0x00,0xe2,0xff,0x8d,0xff, // 4912
0x5b,0x04,0xfe,0xff,0x21,0x00,0xe2,0xff, 0x71,0xff,0xf6,0xff,0xe9,0xff,0xb8,0xff, // 4928
0x02,0x00,0xe3,0xff,0xdf,0xff,0xca,0xff, 0xf1,0xff,0xf2,0xff,0x86,0x00,0x12,0x00, // 4944
0x16,0x00,0xe5,0xff,0xf0,0xff,0x6a,0x00, 0x05,0x00,0x00,0x00,0xc6,0xff,0xf4,0xff, // 4960
0x88,0xff,0xf3,0xff,0x9d,0xff,0x1c,0x00, 0x37,0x00,0x8f,0xff,0x1b,0x00,0x14,0x00, // 4976
0xe2,0xff,0x1f,0x00,0x2c,0x00,0xf5,0xff, 0xee,0xff,0x1e,0x00,0x0f,0x00,0x13,0x00, // 4992
0x01,0x00,0x18,0x00,0xf3,0xff,0x30,0x00, 0xfb,0xff,0xee,0xff,0x13,0x00,0xf5,0xff, // 5008
0x03,0x00,0xf1,0xff,0x93,0xff,0x47,0x00, 0xdb,0xff,0x07,0x00,0xf5,0xff,0x62,0x00, // 5024
0xfa,0xff,0x25,0x00,0x2a,0x00,0x03,0x00, 0x01,0x00,0x03,0x00,0x21,0x00,0xc4,0xff, // 5040
0xfc,0xff,0xc1,0xff,0xd9,0xff,0x22,0x00, 0xbf,0xff,0xf1,0xff,0x04,0x00,0x92,0xff, // 5056
0x18,0x00,0xf1,0xff,0xbd,0xff,0xf7,0xff, 0xfb,0xff,0x01,0x00,0x27,0x00,0x67,0x00, // 5072
0xee,0xff,0x2e,0x00,0xfc,0xff,0xe2,0xff, 0x03,0x00,0xfa,0xff,0xfa,0xff,0xdf,0xff, // 5088
0x11,0x00,0xf4,0xff,0x1d,0x00,0x2d,0x00, 0x4d,0xff,0x07,0x00,0xdd,0xff,0xf8,0xff, // 5104
0x1a,0x00,0x1e,0x00,0x04,0x00,0xf9,0xff, 0x13,0x00,0xf7,0xff,0x0e,0x00,0x01,0x00, // 5120
0x07,0x00,0x02,0x00,0xf4,0xff,0x2b,0x00, 0x4e,0x00,0xde,0xff,0x03,0x00,0xfc,0xff, // 5136
0x08,0x00,0xcf,0xff,0xe8,0xff,0x31,0x00, 0x10,0x00,0x14,0x00,0x4b,0x00,0x2a,0x00, // 5152
0xef,0xff,0x16,0x00,0xdd,0xff,0xee,0xff, 0xfb,0xff,0x08,0x00,0x60,0x00,0x05,0x00, // 5168
0x21,0x00,0xf8,0xff,0x09,0x00,0x04,0x00, 0x23,0x00,0xf3,0xff,0x00,0x00,0xe3,0xff, // 5184
0xf2,0xff,0x87,0xfe,0x03,0x00,0x1f,0x00, 0x1f,0x00,0x10,0x00,0x00,0x00,0xe6,0xff, // 5200
0xda,0xff,0x07,0x00,0xde,0xff,0x0b,0x00, 0xfb,0xff,0x43,0x00,0x1f,0x00,0xf2,0xff, // 5216
0xfa,0xff,0xfc,0xff,0xa0,0xff,0x09,0x00, 0xef,0xff,0xee,0xff,0x98,0xff,0xe8,0xff, // 5232
0xf2,0xff,0xf6,0xff,0xcd,0xff,0x16,0x00, 0xdc,0xff,0x03,0x00,0x22,0x00,0xd7,0xff, // 5248
0xdc,0x00,0x03,0x00,0x3f,0x00,0x51,0x00, 0x26,0x00,0xdb,0xff,0x27,0x00,0xfd,0xff, // 5264
0x2d,0x00,0x16,0x00,0x00,0x00,0xdf,0xff, 0xc4,0xff,0xf3,0xff,0x16,0x00,0x07,0x00, // 5280
0x07,0x00,0x10,0x00,0x03,0x00,0x0f,0x00, 0x06,0x00,0x04,0x00,0x37,0xff,0xdb,0xff, // 5296
0x44,0x00,0xf9,0xff,0x24,0x00,0x28,0x00, 0x37,0x00,0x0d,0x00,0x0a,0x00,0xde,0xff, // 5312
0x35,0x00,0xea,0xff,0x17,0x00,0x21,0x00, 0xea,0xff,0x17,0xff,0x2a,0x00,0x19,0x00, // 5328
0x06,0x00,0x02,0x00,0xdd,0xff,0xe3,0xff, 0xd3,0xff,0x03,0x00,0xca,0xff,0xf9,0xff, // 5344
0x29,0x00,0x70,0x00,0x28,0x00,0x2a,0x00, 0x7a,0xff,0x09,0x00,0x18,0x00,0xa0,0xfd, // 5360
0x00,0x00,0x57,0x01,0xea,0xff,0x23,0x01, 0x2e,0x00,0x6f,0x00,0x24,0x00,0x0e,0x00, // 5376
0xa8,0xff,0xe7,0xff,0x01,0xff,0xe0,0x00, 0x13,0xff,0x5e,0x00,0xe0,0xff,0xf2,0xff, // 5392
0x82,0x00,0xa9,0xff,0xcd,0xff,0x4b,0x00, 0x26,0x00,0x45,0x00,0x92,0xff,0x1a,0x00, // 5408
0xf7,0xff,0xc5,0xff,0xd5,0xff,0xfb,0xff, 0xe1,0xff,0x2d,0x00,0x1f,0x00,0x0c,0x00, // 5424
0x9f,0x01,0xd2,0xff,0xe7,0xff,0xb6,0x03, 0xd6,0xff,0x60,0x00,0x0d,0x00,0xce,0x00, // 5440
0xd2,0xff,0x2c,0x00,0x4d,0x00,0xe6,0xff, 0x0e,0x00,0x15,0x00,0x7b,0x00,0xd1,0xff, // 5456
0xf3,0xff,0x9d,0xff,0x26,0x00,0x6e,0xfe, 0xd5,0xff,0xeb,0xff,0xc0,0xff,0x33,0x00, // 5472
0x06,0x00,0x2f,0x00,0x02,0x00,0x1c,0x00, 0xfb,0xff,0x50,0x00,0x42,0x00,0x40,0x00, // 5488
0xf5,0xfe,0xef,0xff,0x54,0xff,0xc9,0xff, 0x63,0x00,0x0f,0x00,0x8f,0xff,0xf4,0xff, // 5504
0xe8,0xff,0x1d,0x00,0x56,0x00,0x71,0xff, 0x7e,0xff,0x78,0x00,0xaa,0x00,0x69,0x01, // 5520
0xfc,0xff,0x92,0xff,0x17,0x00,0x45,0x00, 0x29,0x00,0x63,0x00,0xd8,0xff,0x06,0x00, // 5536
0xd6,0x00,0xb0,0x00,0x9f,0xff,0x17,0x00, 0x43,0x00,0xe3,0xff,0xec,0xff,0xe1,0xff, // 5552
0x62,0xff,0x9e,0xff,0xb3,0x00,0x13,0x00, 0x4c,0x00,0xf5,0xff,0x45,0x00,0x1c,0x00, // 5568
0x63,0xff,0x07,0x00,0x30,0x00,0xfe,0xff, 0x55,0x00,0x1e,0x00,0xbf,0xff,0x08,0x00, // 5584
0xe6,0x03,0xdf,0xff,0xe7,0xff,0x69,0x01, 0xf8,0x03,0x8e,0xff,0xe6,0xfe,0x00,0x00, // 5600
0x28,0xff,0xf5,0xff,0x2e,0x00,0xd5,0xff, 0x16,0x00,0xdd,0xff,0x90,0xfc,0xf2,0xff, // 5616
0xf7,0xfc,0x03,0x00,0x64,0x00,0xf6,0xff, 0xc9,0x02,0x25,0x00,0xd7,0xff,0xf4,0xff, // 5632
0x52,0xf4,0x13,0x00,0xfb,0xff,0x22,0x00, 0xe2,0xff,0xe9,0xff,0xc6,0xff,0xa2,0xff, // 5648
0x49,0x00,0xf8,0xff,0xe4,0xff,0x1e,0x00, 0x23,0x00,0x0f,0x00,0xdb,0xff,0xfd,0xff, // 5664
0xd3,0xff,0xd8,0xff,0xea,0xff,0x38,0x00, 0xd0,0xff,0xf9,0xfb,0xfa,0xff,0x52,0x00, // 5680
0xf0,0xff,0xf9,0xff,0x0b,0x00,0xf7,0xff, 0x90,0xff,0x12,0x00,0xf4,0xff,0xec,0xff, // 5696
0xfb,0xff,0xb3,0xff,0xfb,0xff,0x13,0x00, 0x10,0x00,0xec,0xff,0xb6,0xfe,0xfa,0xff, // 5712
0xf1,0xff,0x05,0x00,0x04,0x00,0x9f,0xff, 0x81,0xff,0xed,0xff,0xb3,0xff,0xf2,0xff, // 5728
0x07,0x00,0xf4,0xff,0x8c,0x03,0xf7,0xff, 0xfc,0xff,0x1f,0xfe,0x13,0x00,0xe3,0xff, // 5744
0xef,0xff,0x15,0x00,0x00,0x00,0x53,0x00, 0x17,0x00,0xe2,0xff,0xfb,0xff,0xed,0xff, // 5760
0x3f,0xff,0x1c,0x00,0x4d,0x00,0x18,0x00, 0xf3,0xff,0xd5,0xff,0xfa,0xff,0xf5,0xff, // 5776
0xe8,0xff,0x30,0x00,0xf4,0xff,0x22,0x00, 0xf0,0xff,0x9b,0xff,0x10,0x00,0x94,0xff, // 5792
0x05,0x00,0x21,0x00,0x28,0x00,0x13,0x00, 0x5c,0xff,0x2c,0x00,0xfe,0xff,0xbd,0xff, // 5808
0xf0,0xff,0x0a,0x00,0xe4,0xfe,0xe4,0xff, 0x35,0x00,0xfa,0xff,0xf6,0xff,0xf4,0xff, // 5824
0x20,0x00,0x06,0x00,0xfc,0xff,0xe3,0xff, 0xd3,0xff,0xec,0xff,0x2c,0x00,0xba,0xff, // 5840
0x48,0x00,0x20,0x00,0xfc,0xff,0x0b,0x00, 0x2a,0x00,0xd5,0xff,0x08,0x00,0x07,0x00, // 5856
0x47,0x00,0x0f,0x00,0xf2,0xff,0x03,0x00, 0x04,0x00,0xef,0xff,0xcf,0xff,0x2b,0x00, // 5872
0x07,0x00,0xf7,0xff,0x81,0xff,0xff,0xff, 0x01,0x00,0x17,0x00,0x1c,0x00,0x5c,0x00, // 5888
0x04,0x00,0x30,0x00,0xdc,0xff,0xd2,0xff, 0xf3,0xff,0xf3,0xff,0x00,0x00,0xcc,0xff, // 5904
0x01,0x00,0xb4,0xff,0x4b,0x00,0xfb,0xff, 0xa3,0x00,0x1a,0x00,0x2d,0x00,0x57,0xff, // 5920
0xeb,0xff,0xd4,0xff,0x06,0x00,0x42,0x00, 0xce,0xff,0xad,0x00,0xba,0xff,0x7d,0xff, // 5936
0x3e,0x00,0x21,0x00,0xb6,0xff,0x77,0x00, 0xbe,0xff,0xc6,0xff,0x12,0x00,0x3d,0x00, // 5952
0x12,0x01,0xa8,0x00,0xc2,0xff,0xfd,0xff, 0x1e,0x00,0xc3,0x00,0xaa,0xfd,0xfb,0xfd, // 5968
0xc9,0xff,0x02,0x00,0x13,0x00,0x00,0x00, 0xb9,0xff,0xee,0xff,0xee,0xff,0x95,0xff, // 5984
0x82,0x01,0x2e,0x00,0xf2,0x00,0xd4,0x00, 0x18,0x00,0x73,0x02,0x75,0x01,0x54,0x00, // 6000
0xbc,0x01,0x2f,0x00,0x46,0x00,0x21,0x00, 0xed,0xfe,0xfb,0xff,0x49,0xff,0x1c,0x00, // 6016
0x14,0xfe,0x9b,0x00,0xdd,0xff,0xc8,0xfd, 0xea,0xff,0x38,0x00,0xac,0xff,0xd7,0xfe, // 6032
0xfb,0xfe,0x18,0x00,0x0e,0x00,0xf0,0xff, 0x82,0x00,0x9a,0xff,0x5b,0x00,0x30,0x00, // 6048
0x79,0xfe,0x4f,0x00,0x96,0xff,0xdc,0xff, 0xcc,0xff,0xef,0xff,0x41,0x00,0xc1,0xff, // 6064
0x45,0xff,0xd0,0x00,0x38,0xff,0x0a,0x00, 0x3f,0xfd,0x63,0x00,0xa4,0xff,0xf0,0x01, // 6080
0xa9,0x00,0xed,0xff,0xea,0xff,0xe6,0xff, 0x50,0x00,0x17,0x00,0xfa,0x00,0xdb,0xff, // 6096
0x3a,0x00,0x73,0x00,0x0e,0x00,0xb7,0xff, 0xd9,0xff,0x17,0x00,0x06,0x00,0x1a,0x00, // 6112
0x08,0x00,0xff,0xff,0x44,0x00,0xdc,0x00, 0x0c,0x00,0xd4,0xff,0x41,0x02,0xfa,0xff, // 6128
0x22,0x00,0x33,0x00,0x71,0xff,0xd2,0x01, 0x28,0x00,0x63,0x00,0xd8,0x01,0x8f,0xff, // 6144
0xd0,0x00,0x3d,0x00,0xb7,0x00,0x52,0x00, 0xb0,0x00,0xa3,0xfd,0x4b,0xff,0x84,0xfe, // 6160
0x44,0xfd,0x6c,0xff,0x09,0x00,0x4e,0xff, 0xc3,0xff,0x2d,0x00,0xf5,0xfe,0x6c,0x00, // 6176
0x6d,0xff,0x09,0x00,0xc6,0xff,0x35,0x00, 0xb8,0x01,0x4e,0x00,0x4b,0xff,0x55,0xff, // 6192
0x26,0x01,0xa5,0xff,0x8a,0x00,0x2c,0x00, 0xce,0xff,0xad,0xff,0xd6,0xff,0x6f,0xff, // 6208
0x01,0x01,0x17,0x00,0xd0,0x00,0x1c,0x00, 0xb7,0xff,0x5e,0x00,0xe6,0xff,0x1e,0xff, // 6224
0x8b,0x00,0xca,0x00,0x3b,0x00,0x64,0xff, 0xd4,0xfe,0xe5,0x00,0x5e,0xff,0x60,0xff, // 6240
0xd1,0xff,0x0c,0x00,0xe4,0xff,0xa9,0xff, 0x85,0x00,0x1a,0xff,0x26,0x00,0x1e,0x00, // 6256
0x94,0xff,0x59,0xff,0xa3,0xff,0x4c,0x00, 0x83,0xff,0x5b,0x00,0xa7,0x00,0xb5,0xff, // 6272
0x1b,0x00,0x1a,0x00,0x04,0x00,0x62,0xff, 0x8e,0x00,0x95,0xfe,0xdf,0x00,0x18,0x00, // 6288
0x13,0x00,0x68,0xff,0x0c,0xff,0x44,0x00, 0xac,0xff,0xc4,0x00,0xe8,0xff,0xd2,0x00, // 6304
0x35,0x00,0x19,0x00,0xe9,0xff,0x21,0x00, 0x10,0x00,0x8c,0x00,0xa4,0x00,0x92,0xff, // 6320
0x40,0x00,0xbc,0xff,0x5a,0x00,0xe9,0xff, 0x66,0x00,0x5a,0xff,0x84,0x01,0xbe,0xff, // 6336
0x07,0x00,0x41,0x00,0xfc,0xff,0xad,0x01, 0x4f,0x00,0x04,0x00,0x86,0x00,0x23,0xff, // 6352
0xe7,0xff,0xf9,0xff,0x2f,0xff,0x45,0xff, 0x19,0x00,0x49,0xff,0x8d,0x00,0xbf,0xff, // 6368
0x14,0x00,0x2e,0x01,0xc2,0x00,0x9a,0xff, 0xcd,0xff,0x7b,0xfe,0xf5,0xff,0x04,0x00, // 6384
0x22,0x00,0x41,0x00,0x41,0x00,0x40,0x00, 0xe1,0x00,0xa2,0x00,0x26,0x00,0x3f,0x00, // 6400
0x4b,0xff,0xb7,0xff,0x17,0x00,0xec,0xff, 0xd9,0xff,0x58,0xfe,0xdf,0xff,0x4e,0x00, // 6416
0xe8,0xff,0xf5,0xff,0xab,0x00,0x05,0x00, 0xae,0xff,0x6b,0x00,0xb5,0xff,0x72,0xff, // 6432
0xc8,0xff,0xfe,0xff,0x9b,0xff,0xe8,0xff, 0x25,0x00,0xf1,0xff,0x94,0xff,0xf6,0xff, // 6448
0xa0,0x00,0x73,0xff,0x33,0x00,0x0f,0x00, 0x47,0x00,0x5a,0xff,0x78,0x00,0x3a,0xfe, // 6464
0xb2,0xff,0x7f,0xff,0xfd,0xff,0x15,0x00, 0x0f,0x00,0x06,0x00,0xdd,0xff,0x0c,0x00, // 6480
0x2a,0x00,0xe5,0xff,0xfc,0xff,0x95,0xff, 0x0d,0x00,0xb2,0xff,0x48,0x00,0x15,0x00, // 6496
0xf6,0xff,0xdb,0xff,0xf4,0xff,0xfc,0xff, 0xe3,0xff,0x21,0x00,0xe7,0xff,0x63,0x00, // 6512
0xce,0xff,0xe8,0xff,0x26,0x00,0x3c,0x00, 0xed,0xff,0x7f,0xff,0x24,0x00,0x03,0x00, // 6528
0x1e,0x00,0xe1,0xff,0xeb,0xff,0x18,0x00, 0x2c,0x00,0x1d,0x00,0x1e,0x00,0x0f,0x00, // 6544
0xc9,0xff,0xd6,0xff,0xd4,0xff,0x4a,0xfb, 0x00,0x00,0xd0,0xff,0x18,0x00,0xd5,0xff, // 6560
0xb8,0xff,0x33,0x00,0xfd,0xff,0xe7,0xff, 0xff,0xff,0x35,0x00,0xea,0xff,0xde,0xff, // 6576
0x10,0x00,0xfa,0xff,0x0b,0x00,0x42,0x00, 0x05,0x00,0x43,0x00,0x65,0x00,0x64,0xff, // 6592
0xee,0xff,0x23,0x00,0xf2,0xff,0x24,0x00, 0xed,0xff,0xf6,0xff,0x0e,0x00,0xf9,0xff, // 6608
0x49,0x00,0x11,0x00,0xe6,0xff,0x64,0x00, 0x01,0x00,0x0f,0x00,0x08,0x00,0xd3,0xff, // 6624
0x16,0x00,0x27,0x00,0x25,0x00,0x1b,0x00, 0x4e,0x00,0x50,0x00,0x40,0x00,0xb3,0xff, // 6640
0xfe,0xff,0x07,0x00,0xbb,0xff,0x09,0x00, 0xee,0xff,0xe4,0xff,0xce,0xff,0xa7,0xff, // 6656
0x1e,0x00,0x0a,0x00,0x5b,0x00,0x0b,0x00, 0x25,0x00,0xe7,0xff,0xe8,0xff,0xf3,0xff, // 6672
0xe2,0xff,0xc6,0xff,0x2d,0x00,0x0f,0x00, 0x39,0x00,0x1a,0x00,0xd2,0xff,0x0b,0x00, // 6688
0x12,0x00,0x2e,0x00,0xf4,0xff,0xed,0xff, 0xd5,0xff,0xc0,0xff,0xc2,0xff,0xec,0xff, // 6704
0xcc,0xfa,0xec,0xff,0x16,0x00,0x0d,0x00, 0x53,0xfc,0x1f,0x00,0xd8,0xff,0xf4,0xff, // 6720
0x55,0x00,0x11,0x00,0x08,0x00,0xe9,0xff, 0x52,0x00,0x9b,0xff,0x86,0x06,0xf3,0xff, // 6736
0x0a,0x03,0x2b,0x00,0xea,0xff,0x1f,0x00, 0x7a,0xf3,0x0b,0x00,0xed,0xff,0xd4,0xff, // 6752
0xa6,0xff,0x28,0xfe,0x14,0x03,0xf4,0xff, 0x0d,0xff,0x15,0x00,0x57,0x00,0xc1,0xff, // 6768
0x4d,0x00,0x4e,0x00,0x14,0x00,0xec,0xff, 0x8c,0x00,0x3f,0x00,0x37,0x00,0xc7,0x00, // 6784
0x5c,0x00,0x92,0x01,0x8b,0x00,0xb2,0x00, 0x7e,0x00,0x9a,0xff,0xfd,0xfe,0xcf,0xff, // 6800
0xa9,0x00,0xdd,0xff,0x05,0x00,0x0f,0x00, 0x9d,0xff,0x1a,0x00,0xb4,0x00,0x1e,0x00, // 6816
0x65,0xff,0xd9,0xff,0xe0,0xff,0x04,0x00, 0x6b,0x00,0x2c,0x00,0xc4,0xff,0xf6,0xff, // 6832
0xdd,0xf9,0xf9,0xff,0x17,0x00,0xe1,0xff, 0xfa,0xff,0xc7,0xfe,0x42,0x00,0x9a,0x00, // 6848
0xfc,0xff,0xbf,0xfe,0xa0,0x00,0x3a,0x00, 0x16,0x00,0x2d,0xff,0x5a,0xff,0x08,0x00, // 6864
0x74,0xfa,0x4f,0x00,0x4a,0x00,0xcf,0xff, 0xf9,0xff,0x28,0x00,0xe6,0x04,0xb8,0xff, // 6880
0x91,0xff,0xda,0x00,0x07,0x00,0xc7,0x00, 0x96,0xff,0x74,0xfe,0x0b,0x00,0xc6,0xff, // 6896
0x3d,0x00,0x90,0xff,0xdd,0x00,0x80,0x00, 0xac,0x00,0x61,0x00,0xcc,0xff,0x49,0xff, // 6912
0xcf,0xff,0x4b,0x00,0x83,0x00,0x50,0x00, 0xb8,0xff,0x3a,0xfe,0xb4,0xfe,0xf9,0xff, // 6928
0xed,0xff,0xbd,0x00,0xc5,0xff,0x36,0x00, 0xf3,0xff,0xfc,0xff,0xff,0xff,0x39,0x00, // 6944
0xe1,0xff,0x45,0x00,0x96,0x00,0x92,0x02, 0xce,0x00,0x04,0x00,0x10,0x00,0x0a,0x00, // 6960
0xfb,0xff,0x5f,0xfd,0xdc,0xff,0xf3,0xff, 0x52,0x00,0xe4,0xfe,0x18,0x00,0xcd,0xff, // 6976
0xcf,0xff,0xd2,0xff,0xd9,0xff,0x7a,0x00, 0xe2,0xff,0x4f,0x00,0xea,0xff,0xbd,0xff, // 6992
0xf9,0xff,0x11,0x00,0x8f,0xff,0xf8,0xff, 0xe9,0xff,0x2b,0x00,0x71,0xfd,0x9b,0xff, // 7008
0xb9,0x00,0x0d,0x00,0x13,0x00,0x83,0xff, 0x06,0x00,0xb6,0xff,0x13,0x00,0xae,0xff, // 7024
0xe6,0xff,0x2d,0x00,0xf5,0xff,0xf9,0xff, 0x38,0x00,0x1c,0x00,0x06,0x00,0xf6,0xff, // 7040
0xff,0xff,0x14,0x00,0xf5,0xff,0x0f,0x00, 0x05,0x00,0xf7,0xff,0xf2,0xff,0xee,0xff, // 7056
0x13,0x00,0x3c,0x00,0xfc,0xff,0x06,0x00, 0x01,0x00,0xb3,0xff,0x14,0x00,0xef,0xff, // 7072
0x0a,0x00,0x35,0x00,0x00,0x00,0x06,0x00, 0xed,0xff,0xfd,0xff,0x4c,0x00,0x0c,0x00, // 7088
0x21,0x00,0xfe,0xff,0x18,0x00,0x06,0x00, 0x02,0x00,0xdf,0xff,0xcc,0xff,0xf7,0xff, // 7104
0xe2,0xff,0x30,0x00,0x29,0x00,0xdd,0xff, 0x12,0x00,0xb4,0xff,0xfb,0xff,0xfa,0xff, // 7120
0x49,0x00,0x1a,0x00,0xf3,0xff,0x1a,0x00, 0xf1,0xff,0x07,0x00,0xc0,0xff,0x32,0x00, // 7136
0x05,0x00,0x45,0x00,0xea,0xff,0x36,0x00, 0x12,0x00,0x0c,0x00,0x01,0x00,0x0c,0x00, // 7152
0xf8,0xff,0xe7,0xff,0xf4,0xff,0xce,0xff, 0x04,0x00,0xfa,0xff,0x18,0x00,0xed,0xff, // 7168
0x23,0x00,0x1f,0x00,0xf3,0xff,0xf3,0xff, 0x12,0x00,0xfd,0xff,0xfe,0xff,0xe4,0xff, // 7184
0x14,0x00,0xee,0xff,0x1a,0x00,0x03,0x00, 0x8b,0x00,0x05,0x00,0xfc,0xff,0xe9,0xff, // 7200
0x0d,0x00,0x44,0x00,0xfe,0xff,0xeb,0xff, 0xfc,0xff,0x10,0x00,0x2d,0x00,0xf8,0xff, // 7216
0x02,0x00,0x0a,0x00,0xf0,0xff,0x02,0x00, 0xea,0xff,0x3c,0x00,0x16,0x00,0xf4,0xff, // 7232
0x11,0x00,0x05,0x00,0xeb,0xff,0x01,0x00, 0x02,0x00,0x13,0x00,0xcf,0xff,0xfb,0xff, // 7248
0xf8,0xff,0x1e,0x00,0x29,0x00,0xfd,0xff, 0xf4,0xff,0xf5,0xff,0x36,0x00,0xfe,0xff, // 7264
0xef,0xff,0x2e,0x00,0xfe,0xff,0xfe,0xff, 0xea,0xff,0x4b,0x00,0xfe,0xff,0x07,0x00, // 7280
0xab,0x00,0x0f,0x00,0x19,0x00,0x14,0x00, 0x0b,0x00,0x16,0x00,0x16,0x00,0x06,0x00, // 7296
0x08,0x00,0x13,0x00,0xfd,0xff,0x28,0x00, 0xea,0xff,0xed,0xff,0xfc,0xff,0x0f,0x00, // 7312
0xf0,0xff,0xe8,0xff,0x05,0x00,0x3d,0x00, 0x36,0x00,0x37,0xff,0xae,0xff,0xf8,0xff, // 7328
0x4c,0x00,0x12,0x00,0x0d,0x00,0xfa,0xff, 0x9e,0xff,0xdb,0xff,0xfa,0xff,0x1e,0x00, // 7344
0x27,0x00,0xff,0xff,0xed,0xff,0x1d,0x00, 0x97,0xff,0xf9,0xff,0xdf,0xff,0x30,0x00, // 7360
0xc4,0xff,0xdc,0xff,0x66,0x00,0x1d,0x00, 0xfa,0xff,0x87,0xff,0xe7,0xff,0x5b,0x00, // 7376
0xea,0xff,0x1e,0x00,0x15,0x00,0xf3,0xff, 0xe6,0xff,0xe2,0xff,0xf5,0xff,0x5b,0xf5, // 7392
0x19,0x00,0x8f,0xff,0xcb,0xff,0xfb,0xff, 0xc4,0xff,0x16,0x00,0xde,0xff,0xde,0xff, // 7408
0x09,0x00,0x20,0x00,0x09,0x00,0xea,0xff, 0x1a,0x00,0xdb,0xff,0x16,0x00,0x15,0x00, // 7424
0x0f,0x00,0xbb,0xff,0xf6,0xff,0x33,0x00, 0x08,0x00,0x31,0x00,0xf1,0xff,0x15,0x00, // 7440
0xec,0xff,0xfb,0xff,0xc4,0xff,0xc7,0xff, 0xe6,0xff,0x07,0x00,0xf6,0xff,0xf2,0xff, // 7456
0xdd,0xff,0x4d,0x00,0xf0,0xff,0xdb,0xff, 0x12,0x00,0xfb,0xff,0x97,0x00,0xf9,0xff, // 7472
0xee,0xff,0xdd,0xff,0x10,0x00,0xe4,0xff, 0xf1,0xff,0x03,0x00,0xef,0xff,0xe8,0xff, // 7488
0x2d,0x00,0x05,0x00,0x11,0x00,0xdc,0xff, 0x13,0x00,0xe3,0xff,0x33,0x00,0xde,0xff, // 7504
0xa1,0xff,0xe0,0xff,0xdf,0xff,0x05,0x00, 0x1c,0x00,0xc3,0xff,0x03,0x00,0x02,0x00, // 7520
0x1e,0x00,0x27,0x00,0xa8,0xff,0xe0,0xff, 0x61,0x00,0x24,0x00,0xe7,0xff,0xdb,0xff, // 7536
0xcd,0xff,0xec,0xff,0xd0,0xff,0x13,0x00, 0x09,0xf5,0xe2,0xff,0x1a,0x00,0xc3,0xff, // 7552
0x02,0xf5,0x72,0x00,0x55,0x00,0x33,0x00, 0x1d,0x00,0xac,0xff,0xfa,0xff,0xfa,0xff, // 7568
0x97,0x00,0xcd,0xff,0x21,0x08,0xec,0xff, 0x23,0x05,0xee,0xff,0xdd,0xff,0x32,0x00, // 7584
0xd5,0xfb,0xf4,0xff,0x2b,0x00,0xfc,0xff, 0xd1,0xff,0xcb,0xff,0xf0,0xff,0x33,0x00, // 7600
0xc8,0xff,0x6c,0xff,0x72,0x00,0x14,0x00, 0xe9,0xff,0x64,0x00,0x0b,0x00,0x29,0x00, // 7616
0x1c,0x00,0xe2,0xff,0x4e,0x00,0x22,0x00, 0x72,0x00,0x0d,0x00,0xe6,0xff,0xe0,0xff, // 7632
0xea,0xff,0xdf,0xff,0xda,0xff,0x0d,0x00, 0x3e,0x00,0x01,0x00,0x14,0x00,0x0d,0x00, // 7648
0x35,0x00,0x0e,0x00,0xe3,0xff,0x57,0x00, 0xc5,0xff,0x09,0x00,0x1b,0x00,0x2d,0x00, // 7664
0xfb,0xff,0xd3,0xff,0xe8,0xff,0xff,0xff, 0xc4,0xff,0xf4,0xff,0xc5,0xff,0x1c,0x00, // 7680
0xd3,0xff,0xee,0xff,0x11,0xff,0xec,0xff, 0x3f,0x00,0xd0,0xff,0x25,0x00,0xdc,0xff, // 7696
0x09,0x00,0xd5,0xff,0x17,0x00,0x0a,0x00, 0xcc,0xff,0x0a,0x00,0x0d,0x00,0x63,0x00, // 7712
0x38,0x00,0x24,0x00,0x0e,0x00,0x1b,0x00, 0xdb,0xff,0xdc,0xff,0xac,0xff,0x44,0x00, // 7728
0xfe,0xff,0xce,0xff,0xfc,0xff,0xec,0xff, 0xf1,0xff,0x9c,0xff,0x27,0x00,0x17,0x00, // 7744
0x08,0x00,0x20,0x00,0x16,0x00,0x18,0x00, 0xcb,0xff,0x6c,0xff,0x8b,0xff,0x07,0x00, // 7760
0xed,0xff,0xe4,0xff,0x0f,0x00,0xf3,0xff, 0x27,0x00,0xc5,0xff,0xec,0xff,0x05,0x00, // 7776
0xad,0xff,0x08,0x00,0xb5,0x00,0x22,0x00, 0x1e,0x00,0xda,0xff,0xe9,0xff,0x37,0x00, // 7792
0xb4,0xff,0xfb,0xff,0x14,0x00,0x1c,0x00, 0x11,0x00,0xd6,0xff,0xe9,0xff,0xc7,0xff, // 7808
0x0a,0x00,0xe7,0xff,0x9a,0xff,0x0d,0x00, 0xea,0xff,0xf4,0xff,0x3b,0x00,0x5b,0x00, // 7824
0x10,0x00,0xe1,0xff,0x0e,0x00,0x6f,0xff, 0xfd,0xff,0x17,0x00,0x31,0x01,0x37,0x00, // 7840
0xd8,0xff,0xea,0xff,0xce,0xff,0xd8,0xff, 0xa5,0xff,0xd9,0xff,0xf3,0xff,0xbd,0xff, // 7856
0x15,0x00,0xb9,0xff,0xaa,0xff,0xe5,0xff, 0xf8,0xff,0x0e,0x00,0x40,0x01,0x3c,0x00, // 7872
0x2c,0x00,0x25,0x00,0x48,0x00,0xce,0xfd, 0x30,0x00,0x10,0x00,0x0c,0x00,0xa9,0x00, // 7888
0xed,0xff,0x3c,0x00,0x2c,0x00,0xf0,0xff, 0x06,0x00,0xe1,0xff,0x44,0x00,0x88,0x00, // 7904
0x79,0xff,0x85,0xff,0xfb,0xff,0x36,0xff, 0xf2,0xff,0xe0,0xff,0x35,0x00,0x22,0x00, // 7920
0xdf,0xff,0x03,0x02,0x49,0xfd,0xf5,0xff, 0x1a,0x00,0xd8,0xff,0x08,0x00,0xbb,0x00, // 7936
0x27,0x00,0x19,0x00,0x14,0x00,0xe9,0xff, 0xf3,0x00,0xf2,0xff,0xf4,0xff,0x46,0x00, // 7952
0x0e,0x00,0x92,0x02,0x2b,0x00,0xa7,0x00, 0x00,0x00,0x1e,0x00,0xb7,0xff,0x0f,0x00, // 7968
0xee,0xff,0x51,0x00,0xf6,0xff,0xdf,0xff, 0xee,0xff,0xeb,0xff,0xfa,0xff,0xa4,0xfc, // 7984
0x17,0x00,0x04,0x00,0x07,0xff,0x03,0x00, 0xe2,0xff,0x20,0x00,0x26,0x00,0x0b,0x00, // 8000
0xf1,0xff,0x4b,0x00,0x45,0x00,0xec,0xff, 0x10,0xff,0x60,0x00,0xa2,0xff,0x8d,0xff, // 8016
0xfa,0xff,0x04,0x00,0x7f,0x00,0xea,0xff, 0x1c,0x00,0xfd,0xff,0xfc,0xff,0x14,0x00, // 8032
0xff,0xf9,0x14,0xff,0x1c,0x00,0xb0,0x01, 0x0d,0x00,0x0a,0x00,0xf0,0x00,0xde,0xff, // 8048
0x09,0x01,0x6d,0x00,0xeb,0xff,0xf5,0xff, 0xf6,0xff,0x62,0x00,0x94,0xff,0x29,0x00, // 8064
0x3e,0x00,0xfb,0xff,0x04,0x00,0xd4,0xff, 0xe9,0xff,0xe3,0xff,0xca,0xff,0x13,0x00, // 8080
0x13,0x00,0x43,0x00,0xba,0x02,0xd4,0xff, 0x38,0x00,0xfb,0xff,0x8c,0xfe,0x0c,0x00, // 8096
0xd1,0xff,0x8d,0x00,0x11,0x00,0x0e,0x00, 0x2f,0x00,0xfd,0xff,0x10,0x00,0xe0,0x00, // 8112
0x2a,0x00,0x7a,0xfd,0x2d,0x00,0xe3,0xff, 0x98,0xf8,0xc0,0xfe,0x4f,0x00,0x0e,0x00, // 8128
0x1c,0x00,0xed,0xff,0xae,0xff,0xf4,0xff, 0xf9,0xff,0xd9,0xff,0x49,0xff,0x1d,0x00, // 8144
0x1f,0x01,0xd0,0xff,0xf4,0xff,0x00,0x00, 0xc2,0xff,0x41,0x00,0x0d,0x00,0x11,0x00, // 8160
0x1a,0x00,0x26,0xff,0x15,0x00,0x95,0xff, 0xfe,0xff,0x23,0x00,0xce,0x03,0xb9,0xff, // 8176
0x05,0xff,0xe4,0xff,0xba,0xff,0xe2,0xff, 0x5f,0x00,0xef,0xff,0x03,0x00,0xce,0xff, // 8192
0xb2,0xff,0xd5,0xff,0xf8,0xff,0x02,0x00, 0xea,0xff,0xd7,0xff,0x09,0x00,0xde,0xff, // 8208
0x96,0xff,0x2a,0x00,0xf6,0xff,0x19,0x00, 0xfa,0xff,0x45,0x00,0x22,0x00,0xb4,0xff, // 8224
0x31,0x00,0xef,0xff,0x18,0x00,0xf4,0xff, 0x01,0x00,0xef,0xff,0x4d,0x00,0x9e,0xff, // 8240
0x41,0x00,0xe3,0xff,0x16,0x00,0x05,0x00, 0xe5,0xff,0x10,0x00,0x46,0x00,0xe9,0xff, // 8256
0xcf,0xff,0xcb,0xff,0x07,0x00,0x0e,0x00, 0x0c,0x00,0x7a,0xff,0xde,0xff,0x5f,0xff, // 8272
0xe4,0xff,0x74,0x09,0x0e,0x00,0x31,0x00, 0x40,0x00,0xf3,0xff,0x33,0x00,0xeb,0xff, // 8288
0xb1,0xff,0x39,0x00,0xe6,0xff,0x00,0x01, 0x11,0x00,0xe7,0xff,0xbb,0xff,0x33,0x00, // 8304
0x3d,0x00,0xbf,0xff,0x9f,0x00,0xd2,0xff, 0xd5,0xff,0x4f,0x00,0xe7,0xff,0x21,0x00, // 8320
0x1f,0x00,0x2e,0x00,0x42,0x00,0xa8,0x00, 0x51,0x00,0x25,0x00,0x13,0x00,0xf5,0xfe, // 8336
0x41,0x00,0x26,0x00,0x01,0x01,0xf7,0xff, 0xfe,0xff,0xf9,0xff,0x0c,0x00,0xd5,0xff, // 8352
0xdb,0xff,0xfd,0xff,0xa3,0x00,0xfc,0x00, 0x16,0x00,0x23,0x00,0xef,0xff,0xe3,0xff, // 8368
0xf4,0xff,0xcd,0xff,0xc4,0xff,0x1f,0x00, 0xce,0xff,0x15,0x00,0x25,0x00,0xcd,0xff, // 8384
0xee,0xff,0xed,0xff,0x96,0x00,0xc1,0xff, 0xbc,0xff,0x26,0x00,0xba,0xff,0xb7,0xff, // 8400
0xf4,0xff,0xb3,0xff,0x2c,0x00,0x26,0x00, 0xc3,0xff,0x71,0xfa,0x1a,0x00,0x3d,0x00, // 8416
0x69,0x00,0x10,0x00,0x5a,0xff,0xc5,0xff, 0xbb,0xff,0xaf,0xff,0x5e,0xff,0xb4,0xff, // 8432
0xca,0xff,0x74,0x01,0xd6,0xff,0x37,0x01, 0x9c,0xff,0x0d,0x00,0x96,0x00,0xc2,0xff, // 8448
0x67,0xff,0xab,0xff,0xfa,0xff,0x1a,0x00, 0x4d,0x00,0x27,0x00,0xa0,0x00,0x04,0x00, // 8464
0xf6,0xff,0x59,0xfb,0xdc,0xff,0x43,0xfd, 0x40,0x00,0xf1,0xff,0x27,0x00,0x0a,0x00, // 8480
0x8c,0x00,0x2b,0x00,0xfa,0xff,0x26,0x00, 0xb9,0x00,0x29,0x00,0xca,0xff,0x10,0x00, // 8496
0xfe,0xff,0xfa,0xff,0xde,0xff,0x20,0x00, 0x96,0xff,0x03,0x00,0xd6,0xff,0xff,0xff, // 8512
0xa7,0x00,0x15,0x00,0xd9,0xff,0x89,0xff, 0xc5,0x00,0xfe,0xff,0x3d,0xfe,0xc0,0xff, // 8528
0x1a,0x00,0x56,0x00,0x00,0x00,0x1b,0x00, 0x30,0x00,0x11,0x00,0x14,0x00,0xa7,0x00, // 8544
0xa9,0x00,0x34,0x00,0xe6,0xff,0x5c,0x00, 0x16,0x00,0xfb,0xff,0xdc,0xff,0xe1,0xff, // 8560
0x6f,0xff,0x64,0xff,0x90,0xff,0x58,0x00, 0x78,0x00,0x8f,0x02,0x57,0x00,0xc6,0xff, // 8576
0x0e,0x00,0x69,0xff,0x83,0x00,0xbf,0xff, 0x78,0xff,0x30,0xff,0x79,0xff,0x59,0x01, // 8592
0x26,0x00,0xfe,0xff,0xeb,0x00,0x68,0xff, 0x34,0xff,0xcc,0x06,0x02,0x02,0x6e,0x00, // 8608
0x9d,0xff,0xe6,0xff,0x96,0xff,0x58,0x00, 0x80,0xff,0xc1,0xff,0xc8,0xff,0xe2,0xff, // 8624
0x8b,0xfe,0x19,0x00,0x00,0x00,0xbd,0xfe, 0x31,0x00,0x07,0x00,0xbf,0xff,0x14,0x00, // 8640
0xc7,0xff,0x50,0x02,0x02,0x00,0xf8,0xff, 0x86,0xff,0x36,0x00,0xa6,0x00,0xd5,0xff, // 8656
0xed,0xff,0x09,0x00,0x7b,0x00,0x61,0x00, 0xe7,0xff,0x1c,0x00,0x22,0x00,0x01,0x00, // 8672
0xe1,0xff,0xff,0xff,0x3b,0x00,0x31,0x00, 0x45,0x00,0x78,0x00,0x03,0x01,0x90,0x00, // 8688
0x7b,0xff,0xee,0xff,0xfb,0xff,0xa9,0xff, 0x23,0x00,0x53,0x00,0x54,0x00,0x3f,0x00, // 8704
0xf0,0xff,0xc9,0x00,0x2d,0x00,0xfb,0xff, 0x1b,0x00,0xea,0xff,0xee,0xff,0xab,0xff, // 8720
0xef,0xff,0xb0,0x01,0xf8,0xff,0x3b,0x00, 0x2b,0x00,0x1e,0x02,0xdc,0xff,0xfa,0xfe, // 8736
0xf1,0xff,0xd2,0xff,0xb6,0xff,0xf4,0x00, 0x89,0x00,0x22,0x00,0x05,0x00,0xe6,0xfe, // 8752
0xd3,0xff,0x31,0x00,0xf0,0xff,0xc9,0xff, 0xf3,0xff,0xdf,0xff,0xf9,0xff,0x82,0xf4, // 8768
0xad,0xff,0xd9,0xff,0x05,0x00,0x21,0x00, 0x0a,0x00,0x9a,0x00,0x0b,0x00,0xd3,0xfe, // 8784
0xef,0xff,0xe6,0xff,0x3b,0x00,0xc9,0x01, 0xfc,0xff,0x04,0x00,0x42,0x02,0x20,0x00, // 8800
0x8c,0x00,0xeb,0xff,0xe9,0xff,0x0a,0x00, 0x7c,0xff,0xdc,0xff,0xea,0xff,0xe6,0xff, // 8816
0xbc,0xf7,0x1d,0x00,0xff,0xff,0x39,0x00, 0x0d,0x00,0x27,0x00,0xfe,0xff,0xee,0x00, // 8832
0x79,0xff,0x9d,0xff,0xed,0xff,0x30,0x00, 0x14,0x00,0xce,0xff,0x57,0x00,0x21,0x00, // 8848
0x0d,0x00,0xe4,0xff,0x38,0xff,0x94,0xfd, 0x4f,0x00,0x0a,0x00,0x0c,0x00,0x0f,0x00, // 8864
0xd3,0xff,0xdb,0xff,0x23,0x00,0xc2,0xff, 0xff,0xff,0x0e,0xff,0xd3,0xff,0xda,0xff, // 8880
0x00,0x00,0xf3,0xff,0x1a,0x01,0x5c,0xff, 0xd7,0xff,0x3b,0x00,0x3a,0x00,0xf5,0xff, // 8896
0x31,0x00,0x91,0x00,0x3d,0xfe,0x06,0x00, 0x19,0x00,0x0c,0x00,0x02,0x00,0x20,0x00, // 8912
0xdf,0xff,0x51,0x00,0xd3,0xff,0x4d,0x00, 0xc7,0xff,0xd9,0xff,0x1d,0x00,0xfc,0xff, // 8928
0xcb,0xff,0x09,0x00,0x0f,0x00,0x4d,0x09, 0x4b,0x00,0xf0,0xff,0x50,0x00,0xff,0xff, // 8944
0x1f,0x02,0xe4,0xff,0xfc,0xff,0x06,0x00, 0xa8,0x01,0xea,0xff,0x0b,0x00,0xcf,0xfd, // 8960
0x03,0x00,0x0f,0x00,0xe6,0xff,0x2d,0x00, 0x67,0x00,0x50,0x00,0xd8,0xfd,0x2f,0x00, // 8976
0x0b,0xfd,0x0e,0x00,0x71,0x00,0xef,0xff, 0x0e,0x03,0xa1,0x00,0x6d,0x00,0x4a,0xff, // 8992
0xbd,0xff,0xf6,0xff,0x06,0x00,0xe7,0xff, 0x0d,0x00,0x24,0x00,0x26,0x00,0x01,0x00, // 9008
0xfd,0xff,0x11,0x00,0xff,0xff,0xee,0xff, 0xf8,0xff,0x87,0xff,0x0a,0x00,0x1a,0x00, // 9024
0x0c,0x00,0x11,0x00,0x07,0x00,0x40,0x00, 0x1a,0x00,0xbf,0xff,0xf3,0xff,0x93,0x00, // 9040
0xfc,0xff,0x0e,0x00,0xda,0xff,0xde,0xff, 0x05,0x00,0xf6,0xff,0x15,0x00,0x0f,0x00, // 9056
0xee,0xff,0x2c,0x00,0x69,0x00,0xe7,0xff, 0x18,0x00,0x91,0xff,0x13,0x00,0x1b,0x00, // 9072
0xf2,0xff,0x21,0x00,0x2b,0x00,0x0f,0x00, 0xe0,0xff,0xe4,0xff,0x18,0x00,0x16,0x00, // 9088
0xce,0xff,0x02,0x00,0x43,0x00,0x7d,0xff, 0xde,0xff,0xbd,0xff,0xe0,0xff,0xf3,0xff, // 9104
0xe8,0xff,0x01,0x00,0xf3,0xff,0xeb,0xff, 0xd3,0xff,0xfc,0xff,0x07,0x00,0x59,0x00, // 9120
0x2a,0x00,0xc7,0xff,0x1c,0x00,0x06,0x00, 0xe8,0xff,0xfb,0xff,0xeb,0xff,0xeb,0xff, // 9136
0xea,0xff,0xef,0xff,0x04,0x00,0x0f,0x00, 0xeb,0xff,0x1a,0x00,0xe1,0xff,0x1f,0x00, // 9152
0xec,0xff,0xe4,0xff,0xfa,0xff,0x19,0x00, 0x27,0x00,0xf3,0xff,0xd8,0xff,0x08,0x00, // 9168
0xf4,0xff,0xda,0xff,0x1b,0x00,0x1d,0x00, 0xee,0xff,0x03,0x00,0xe5,0xff,0xee,0xff, // 9184
0xca,0xff,0x8b,0xff,0x0d,0x00,0x09,0x00, 0x08,0x00,0x4f,0xff,0xfe,0xff,0xf0,0xff, // 9200
0x93,0x00,0xf2,0xff,0x18,0x00,0xf4,0xff, 0x04,0x00,0xe0,0xff,0x04,0x00,0x2b,0x00, // 9216
0xf9,0xff,0x09,0x00,0x07,0x00,0x1c,0x00, 0x21,0x00,0x93,0xff,0xf4,0xff,0xfd,0xff, // 9232
0x2a,0x00,0xe4,0xff,0x36,0x00,0xd6,0xff, 0xf6,0xff,0x0d,0x00,0xfd,0xff,0xf0,0xff, // 9248
0x0e,0x00,0x0e,0x00,0xdf,0xff,0x07,0x00, 0xde,0xff,0xfd,0xff,0x28,0x00,0xf3,0xff, // 9264
0x1f,0x00,0x0c,0x00,0xdd,0xff,0xdb,0xff, 0xf3,0xff,0xa6,0xff,0x27,0x00,0x54,0x00, // 9280
0x90,0xf6,0x09,0x00,0x4a,0x00,0x10,0x00, 0x06,0x00,0x24,0x00,0x1f,0x00,0x08,0x00, // 9296
0x0c,0x00,0x1f,0x00,0x12,0x00,0x19,0x00, 0x12,0x00,0xf3,0xff,0x23,0x00,0x77,0xff, // 9312
0x05,0x00,0xf1,0xff,0xdb,0xff,0x02,0x00, 0x3d,0x01,0x05,0x00,0xf8,0xff,0xe9,0xff, // 9328
0x3a,0x00,0x00,0x00,0x37,0x00,0xe2,0xff, 0x03,0x00,0x00,0x00,0xd5,0xff,0x04,0x00, // 9344
0x1b,0x00,0x20,0x00,0xe8,0xff,0x0c,0x00, 0xe8,0xff,0x04,0x00,0x12,0x00,0x0e,0x00, // 9360
0xf2,0xff,0x00,0x00,0xe5,0xff,0x3d,0x00, 0xf6,0xff,0x1f,0xfc,0x06,0x00,0x30,0x00, // 9376
0xde,0xff,0xd9,0xff,0xba,0xff,0xe0,0xff, 0xdd,0xff,0x13,0x00,0x01,0x00,0xea,0xff, // 9392
0x0e,0x00,0x19,0x00,0x3a,0x00,0xe0,0xff, 0x38,0x00,0xbe,0xff,0xce,0xff,0x7c,0x01, // 9408
0xe8,0xff,0xc1,0xff,0x09,0x00,0xe1,0xff, 0xfa,0xff,0x62,0xff,0x12,0x00,0x04,0x00, // 9424
0x42,0x00,0x6c,0x00,0xd9,0xff,0x9e,0xff, 0xde,0xff,0x13,0x00,0xf1,0xff,0x15,0x00, // 9440
0x38,0x00,0xb0,0xff,0x6b,0x00,0x24,0x00, 0xec,0xff,0x0b,0x00,0xdd,0xff,0x77,0x00, // 9456
0xdb,0xff,0xf3,0xff,0xf3,0xff,0x06,0x00, 0x0c,0x00,0x1c,0x00,0x29,0x00,0x7d,0x00, // 9472
0x38,0x00,0x20,0x00,0xf1,0xff,0x1d,0x00, 0xee,0xff,0x93,0xff,0xff,0xff,0x29,0x00, // 9488
0x3c,0x00,0xf6,0xff,0x0f,0x00,0x18,0x00, 0xc7,0xff,0xf8,0xff,0xf1,0xff,0xf0,0xff, // 9504
0xf8,0xff,0x2e,0x00,0xfe,0xff,0xe4,0xff, 0x07,0x00,0x01,0x00,0x15,0x00,0xe8,0xff, // 9520
0xd1,0xff,0x17,0x00,0x6b,0xff,0xa3,0xff, 0x08,0x00,0xe5,0xff,0xff,0xff,0x35,0x00, // 9536
0xfb,0xff,0xf5,0xff,0x0e,0x00,0xf3,0xff, 0xfe,0xff,0xfc,0xff,0xfc,0xff,0x08,0x00, // 9552
0xed,0xfe,0xec,0xff,0x89,0xff,0xca,0xff, 0x3f,0x00,0xdd,0xff,0x78,0x00,0x8a,0x00, // 9568
0x6a,0x00,0x05,0x00,0x35,0x00,0x8c,0xff, 0xeb,0xff,0xab,0xff,0x05,0x00,0x8a,0x00, // 9584
0x44,0x00,0xa1,0xff,0xfb,0xff,0xa7,0xff, 0x58,0xff,0xcf,0xfe,0x6f,0x00,0xc4,0x00, // 9600
0x4b,0x00,0x60,0x00,0x02,0x00,0x0e,0x00, 0x8d,0xff,0x51,0xff,0xf7,0xff,0xee,0xff, // 9616
0x68,0x00,0x47,0x00,0x25,0x00,0x8c,0xff, 0xb1,0x00,0xd1,0xff,0x3d,0xff,0x00,0x00, // 9632
0x2e,0x00,0x0c,0x00,0xe8,0xff,0x75,0x00, 0x03,0x00,0x44,0x00,0x14,0x00,0x00,0x00, // 9648
0xdd,0xff,0x38,0x00,0x19,0x01,0xc6,0xff, 0xff,0xff,0xb4,0xfe,0x01,0x00,0x9f,0xff, // 9664
0x31,0x00,0xcb,0xff,0x8a,0xff,0x61,0x00, 0xe8,0xff,0x66,0x00,0x5c,0xff,0x26,0x00, // 9680
0x09,0x00,0x9f,0xff,0x3a,0x00,0x13,0x00, 0x5a,0xff,0x05,0x00,0x97,0xff,0x20,0x00, // 9696
0xd5,0xff,0x8a,0xff,0xbe,0xff,0xb5,0xff, 0x47,0x00,0x40,0x00,0x48,0x00,0x6f,0x00, // 9712
0xb0,0xff,0x1a,0x00,0x38,0x00,0xba,0x00, 0x21,0x00,0x82,0x00,0x3b,0x00,0x00,0x00, // 9728
0x1f,0x00,0xbf,0xff,0x63,0xff,0x08,0x00, 0xf2,0xff,0x65,0x00,0x0c,0x00,0xbc,0xff, // 9744
0xe0,0xff,0xd5,0xff,0xf3,0xff,0x0d,0x00, 0x1d,0x00,0x3f,0xff,0x89,0x00,0x2e,0x00, // 9760
0xef,0x00,0x17,0x00,0x33,0x00,0x24,0x00, 0x0c,0x00,0x5a,0x00,0xdd,0xff,0xf6,0xff, // 9776
0x9b,0xff,0x53,0x00,0x8a,0xff,0xd3,0xff, 0xfe,0xff,0xea,0xff,0x4a,0x00,0xd2,0xff, // 9792
0x05,0x00,0xe1,0xff,0x68,0x00,0x36,0x00, 0xc7,0xff,0xdd,0xff,0xd5,0xff,0xb9,0xff, // 9808
0x20,0x00,0xa3,0xff,0xf7,0xff,0x1c,0x00, 0x0e,0x00,0xb3,0x00,0xf0,0xff,0x76,0x00, // 9824
0x3a,0x00,0xdd,0xff,0xf7,0xff,0x04,0x00, 0x81,0xff,0xd3,0xff,0xaa,0xff,0x4a,0xfd, // 9840
0x0c,0x00,0x97,0xff,0x03,0x00,0x54,0x00, 0x38,0x00,0xb6,0x00,0x20,0x00,0xf9,0xff, // 9856
0x83,0xff,0xc1,0xff,0xa7,0xff,0x9c,0x00, 0x18,0x01,0x57,0x00,0xba,0xff,0x9d,0x00, // 9872
0x8f,0xff,0x69,0xff,0x6c,0x00,0x28,0x01, 0x3a,0x00,0x25,0x00,0x25,0x00,0xbb,0xff, // 9888
0x79,0xff,0xb9,0xff,0xb7,0xff,0xa7,0x00, 0x3b,0x00,0x10,0x00,0x3c,0x00,0x08,0x00, // 9904
0xd6,0x00,0xa8,0xff,0x50,0xff,0xd0,0xff, 0xfb,0x01,0xc7,0xff,0x7b,0x00,0x73,0x00, // 9920
0x5b,0xff,0x04,0x03,0x32,0x00,0xc6,0xff, 0x30,0x00,0x08,0x00,0x80,0x00,0xbf,0xff, // 9936
0xbf,0xff,0x90,0xff,0x42,0x00,0x39,0xff, 0xf7,0x01,0x9a,0xff,0xcb,0xff,0x98,0x00, // 9952
0x3a,0x00,0x1a,0x00,0xd8,0xfe,0x2a,0x00, 0x0f,0x00,0x1a,0x00,0x22,0x02,0x3c,0x00, // 9968
0x0c,0xff,0x47,0xff,0xbc,0xff,0x70,0x00, 0x1b,0x00,0xd2,0xff,0xe8,0xff,0x8e,0xfe, // 9984
0x55,0x00,0x5d,0x00,0xc2,0xff,0xd3,0xff, 0xca,0xff,0xb3,0xff,0x9a,0xff,0xfb,0x00, // 10000
0x26,0x00,0xd4,0xff,0x9a,0xff,0x0b,0x00, 0x6a,0x00,0x85,0xfe,0x60,0xff,0x0b,0x00, // 10016
0x67,0x00,0x35,0x00,0x8f,0x00,0x18,0x00, 0xa8,0xff,0xbf,0xff,0xb5,0xff,0x2c,0x00, // 10032
0x30,0x00,0x22,0xff,0x78,0x00,0xe8,0xff, 0x18,0x01,0x1d,0x00,0xd7,0xff,0x77,0xff, // 10048
0x11,0x00,0xf6,0x01,0xb9,0xff,0x13,0x00, 0xc4,0x00,0x1f,0x00,0xb5,0xff,0xce,0xff, // 10064
0xbf,0xff,0xd6,0xff,0xf2,0xff,0x11,0xff, 0xb7,0xff,0x2f,0x00,0xd0,0x00,0x92,0xff, // 10080
0xb4,0xff,0x8b,0xff,0xb3,0xff,0xb7,0xff, 0x2b,0x00,0xe4,0xff,0x61,0x00,0x16,0x00, // 10096
0x53,0x00,0xa9,0x01,0xa9,0xff,0xf7,0x00, 0xe0,0xff,0x1c,0x00,0x12,0x00,0x0b,0x00, // 10112
0x2b,0x00,0xc5,0xff,0x88,0xff,0xbd,0xff, 0x5c,0x00,0x45,0x00,0xc4,0xff,0x7f,0x00, // 10128
0x54,0x00,0xa5,0x00,0x13,0x00,0x07,0x00, 0xe1,0xff,0xf9,0xff,0x5a,0x00,0xd3,0xff, // 10144
0xfb,0xfe,0xa0,0x00,0xe8,0xff,0xef,0xff, 0x90,0x00,0x44,0x00,0x9b,0x00,0xf4,0xff, // 10160
0xb2,0xff,0xf7,0xfa,0x36,0x02,0xc2,0xff, 0x50,0x00,0xb9,0xff,0xe2,0xff,0x2a,0x00, // 10176
0x53,0x00,0x0a,0x00,0x0c,0x00,0xf5,0xff, 0xb7,0xff,0xf3,0xff,0x52,0x00,0xf0,0xfe, // 10192
0x04,0x00,0xe2,0xfd,0x17,0x00,0x63,0x00, 0xce,0xff,0xc7,0xff,0x73,0x00,0xe9,0xff, // 10208
0xf2,0xff,0x95,0x00,0xdc,0xff,0xf1,0xff, 0xcd,0xff,0x3f,0x00,0x11,0x00,0x1d,0x00, // 10224
0xf8,0xff,0x09,0x00,0x14,0x05,0x94,0x00, 0xfd,0xff,0x18,0x00,0x80,0xff,0x00,0x00, // 10240
0x15,0x00,0x9b,0xff,0x81,0xff,0xb6,0xff, 0x5f,0x00,0xd4,0xff,0x4a,0x00,0x24,0x00, // 10256
0xe6,0x02,0x41,0x00,0x35,0x00,0x79,0x00, 0xd4,0xff,0x2a,0x00,0x18,0x00,0xa9,0xff, // 10272
0x5f,0x00,0x33,0x00,0xd4,0xff,0xed,0xff, 0x25,0x00,0x5f,0x00,0x7f,0x00,0x21,0x00, // 10288
0x8e,0x00,0x8b,0xff,0x64,0x00,0xcc,0xff, 0xa4,0xff,0xcd,0xff,0x57,0x00,0xf5,0x0e, // 10304
0x50,0x00,0xf0,0xff,0xe5,0xff,0x14,0x00, 0x0e,0x00,0xbc,0xff,0x06,0x00,0xdd,0xff, // 10320
0x0d,0x00,0x51,0x00,0xce,0xfc,0x11,0x00, 0x03,0xfe,0x92,0xff,0x4c,0xff,0x3c,0x00, // 10336
0x36,0x00,0xd3,0xf4,0xa2,0xff,0xec,0xff, 0xdc,0xfe,0xe7,0xff,0xd7,0xff,0x42,0x01, // 10352
0x01,0xff,0x27,0x02,0xfe,0xff,0xff,0xff, 0x1e,0x00,0x74,0xff,0xf0,0xff,0xdd,0xff, // 10368
0x22,0x00,0xcf,0xff,0x07,0x01,0x1d,0x00, 0x1f,0x01,0xb2,0x00,0x91,0xff,0x4e,0xff, // 10384
0xae,0xfe,0x1d,0x00,0x11,0x00,0xf3,0xff, 0xe3,0xff,0xf1,0xff,0xfd,0xff,0xf6,0xff, // 10400
0xf3,0xff,0x30,0x00,0x29,0x00,0x05,0x00, 0xee,0xff,0xee,0xff,0xd0,0xff,0x0e,0x03, // 10416
0x4e,0x00,0x50,0x00,0x12,0x00,0xf7,0xff, 0xfc,0xff,0xfc,0xff,0x0d,0x00,0x20,0x00, // 10432
0x09,0x00,0xe2,0xff,0xf5,0xff,0xf3,0xff, 0x05,0x00,0x02,0x00,0x07,0x00,0x16,0x00, // 10448
0xf9,0xff,0x14,0x00,0x07,0x00,0xf6,0xff, 0xfb,0xff,0x1f,0xff,0xb9,0xff,0xc5,0x02, // 10464
0x08,0x00,0x36,0x00,0xf9,0xff,0xeb,0xff, 0x04,0x00,0x03,0x00,0xf8,0xff,0x14,0x00, // 10480
0xe6,0xff,0xf6,0xff,0x0d,0x00,0x0e,0x00, 0x5e,0x00,0xf5,0xff,0x2e,0x00,0x3a,0x00, // 10496
0x1b,0x00,0xd8,0xff,0xee,0xff,0x0c,0x00, 0x04,0x00,0x2d,0x00,0x05,0x00,0xcd,0xff, // 10512
0x60,0x00,0xd6,0xff,0xfc,0xff,0xad,0xff, 0xd1,0xff,0x02,0x00,0x0a,0x00,0x17,0x00, // 10528
0x03,0x00,0xfb,0xff,0x06,0x00,0x2a,0x00, 0x01,0x00,0xdf,0xff,0x19,0x00,0x05,0x00, // 10544
0xe4,0xff,0x03,0x00,0xd9,0xff,0x13,0x00, 0x0a,0x00,0x10,0x00,0xd9,0xff,0x01,0x00, // 10560
0xe3,0xff,0xfb,0xff,0xed,0xff,0xf1,0xff, 0xf7,0xff,0xe7,0xff,0xf4,0xff,0x19,0x00, // 10576
0xfb,0xff,0x0b,0x00,0x07,0x00,0x05,0x00, 0x0e,0x00,0x3a,0x00,0x18,0x00,0x12,0x00, // 10592
0xeb,0xff,0x07,0x00,0xed,0xff,0xe1,0xff, 0xfc,0xff,0xf8,0xff,0x05,0x00,0xf8,0xff, // 10608
0xef,0xff,0xf8,0xff,0x02,0x00,0xf1,0xff, 0xec,0xff,0x00,0x00,0x04,0x00,0x0a,0x00, // 10624
0xfc,0xff,0x47,0x00,0xfa,0xff,0x07,0x00, 0x08,0x00,0x02,0x00,0x0f,0x00,0x08,0x00, // 10640
0x1b,0x00,0x05,0x00,0xed,0xff,0x02,0x00, 0xfe,0xff,0x34,0x00,0x04,0x00,0xd2,0xff, // 10656
0xff,0xff,0x06,0x00,0x10,0x00,0xf5,0xff, 0xf7,0xff,0x05,0x00,0xee,0xff,0x0b,0x00, // 10672
0xef,0xff,0x19,0x00,0x49,0x00,0xa5,0xff, 0x1b,0x00,0x86,0x00,0xff,0xff,0x14,0x00, // 10688
0x17,0x00,0xb3,0xff,0xfb,0xff,0x09,0x00, 0x00,0x00,0xfc,0xff,0x0e,0x00,0xe4,0xff, // 10704
0x01,0xf6,0x04,0x00,0xf6,0xff,0x92,0xff, 0x23,0x00,0xd6,0xff,0x12,0x00,0x0c,0x00, // 10720
0x01,0x00,0xa5,0xff,0xba,0xff,0x01,0x00, 0xef,0xff,0xf6,0xff,0x01,0x00,0xd4,0xff, // 10736
0x35,0x00,0xf9,0xff,0x0a,0x00,0x05,0x00, 0x0e,0x00,0xf6,0xff,0xd2,0xff,0x0e,0x00, // 10752
0xc0,0xff,0x36,0x00,0x19,0x00,0x13,0x00, 0xf8,0xff,0xe6,0xff,0x5b,0x00,0xff,0xff, // 10768
0x01,0x00,0x19,0x00,0x1e,0x00,0xf4,0xff, 0x05,0x00,0xd0,0xff,0x05,0x00,0xec,0xff, // 10784
0xc8,0xff,0x19,0x00,0x7f,0x00,0x03,0x00, 0x08,0x00,0x0a,0x00,0x3c,0x00,0xfe,0xff, // 10800
0xfc,0xff,0x05,0x00,0x1a,0x00,0x01,0x00, 0x06,0x00,0x2a,0x00,0x12,0x00,0xd2,0xff, // 10816
0x02,0x00,0x03,0x00,0x08,0x00,0x11,0x00, 0x34,0x00,0x05,0x00,0x22,0x00,0x98,0xff, // 10832
0x0c,0x00,0x6d,0x00,0x2f,0x00,0x10,0x00, 0x02,0x00,0x13,0x00,0x6c,0x00,0x01,0x00, // 10848
0x00,0x00,0xbc,0x00,0xcf,0xff,0x01,0x00, 0x0d,0x00,0x01,0x00,0xf6,0xff,0x2b,0x00, // 10864
0x03,0x00,0x08,0x00,0xff,0xff,0xf4,0xff, 0x0e,0x00,0xf9,0xff,0xf4,0xff,0x0b,0x00, // 10880
0x01,0x00,0x04,0x00,0x50,0x00,0x2c,0x00, 0xdc,0xff,0xe6,0xff,0x1c,0x00,0xf8,0xff, // 10896
0xe5,0xff,0x89,0xff,0xf3,0xff,0xed,0xff, 0xfc,0xff,0xf5,0xff,0x0b,0x00,0x98,0x11, // 10912
0x0f,0x00,0xc0,0xff,0xf5,0xfe,0xfc,0xff, 0x04,0x00,0xf4,0xff,0x13,0x00,0xfe,0xff, // 10928
0x25,0x00,0xf8,0xff,0xf1,0xff,0x07,0x00, 0xe5,0xff,0xd7,0xff,0xe5,0xff,0xfd,0xff, // 10944
0xe8,0xff,0x0d,0x00,0xe7,0xff,0x03,0x00, 0xf9,0xff,0x1c,0x00,0xbf,0xff,0x01,0xff, // 10960
0x21,0x00,0xda,0xff,0xde,0xff,0x95,0xff, 0xaf,0x00,0xef,0xff,0x20,0x00,0x17,0x00, // 10976
0x44,0xff,0x07,0x00,0x3d,0x00,0x45,0x00, 0xb1,0xff,0xa0,0x00,0x35,0x00,0xec,0xfe, // 10992
0x7e,0xff,0x1d,0x00,0x8e,0x00,0x69,0xff, 0x05,0x00,0x1f,0x00,0xe0,0xff,0x34,0x00, // 11008
0xc2,0xff,0x9a,0xff,0x05,0x00,0x9a,0xff, 0xa7,0x00,0xc8,0xff,0x0d,0x00,0x54,0x00, // 11024
0x0f,0x00,0x27,0x00,0x62,0x00,0x49,0x00, 0x5a,0xff,0x12,0x00,0xcc,0xff,0xed,0xff, // 11040
0x07,0x00,0xd3,0xfa,0xee,0xff,0x51,0x00, 0xe0,0xff,0x90,0x00,0xd2,0xff,0xe7,0xff, // 11056
0x31,0x00,0x39,0x00,0xc5,0xff,0xba,0xff, 0x54,0xff,0x2a,0xff,0xd5,0xff,0x70,0x00, // 11072
0xe3,0xff,0x20,0x00,0xbe,0xff,0xf0,0xff, 0x5f,0x00,0xb3,0xff,0x99,0x00,0x14,0x00, // 11088
0xeb,0xff,0x6a,0x00,0xfa,0xff,0x09,0x00, 0x9a,0xff,0xec,0xff,0xec,0xff,0x49,0x06, // 11104
0x7b,0xff,0x5b,0x00,0xec,0xff,0x57,0xff, 0xf5,0xff,0x3d,0x00,0xa2,0x00,0x2d,0x00, // 11120
0x55,0x00,0x0e,0x00,0xcf,0x01,0x79,0xff, 0xd3,0x00,0x3e,0x00,0x59,0x00,0x0c,0x00, // 11136
0xb5,0xff,0x83,0xff,0x38,0x00,0xb9,0xff, 0x4f,0x00,0xf6,0xff,0x46,0x00,0xa7,0xff, // 11152
0x3e,0x00,0x23,0x00,0x96,0xff,0x14,0x00, 0x8e,0xff,0x80,0x00,0x35,0x00,0x8c,0x00, // 11168
0xdf,0x00,0xb3,0xf8,0x6a,0xff,0xeb,0xff, 0xb2,0xfe,0x45,0x00,0xa8,0xff,0xa6,0xff, // 11184
0x38,0x00,0x03,0x00,0x23,0x00,0x6d,0x00, 0x2e,0x00,0xdd,0xff,0x0d,0x00,0x30,0x00, // 11200
0xc3,0xff,0x2d,0xff,0xbf,0x00,0xa0,0xff, 0x4d,0xff,0xd1,0xff,0xce,0xff,0x54,0x00, // 11216
0xae,0xff,0x65,0x00,0x71,0xff,0x6d,0xfb, 0x23,0x00,0x43,0x00,0xea,0xff,0xe1,0xff, // 11232
0x03,0x00,0x13,0x00,0x81,0x0a,0x12,0xff, 0xfb,0xff,0xed,0x00,0x93,0xff,0x60,0x00, // 11248
0x37,0x00,0x5b,0xff,0x1c,0x00,0xf0,0xff, 0xb9,0xff,0xf6,0xff,0x30,0x00,0x41,0x00, // 11264
0x5b,0xfb,0x34,0x00,0xe3,0xff,0x74,0xff, 0x0f,0x00,0xcd,0xff,0xe4,0xfe,0xfe,0xff, // 11280
0xc5,0xff,0x28,0x00,0x6e,0xff,0x03,0x00, 0xf1,0xff,0x91,0xff,0xea,0xff,0xa4,0xff, // 11296
0x0f,0xff,0x0a,0x00,0x0c,0x00,0xf6,0xff, 0x6a,0x00,0xe8,0xff,0xcd,0xff,0xc4,0x00, // 11312
0x19,0x00,0x5c,0x00,0xfd,0xff,0x6f,0x00, 0x0d,0x00,0x11,0x00,0x3c,0x00,0xf1,0xff, // 11328
0xe6,0xff,0xac,0xff,0x11,0x00,0xef,0xff, 0xf9,0xff,0xed,0xff,0x0f,0x00,0x6c,0xff, // 11344
0x02,0x00,0xc2,0xff,0x79,0x00,0x13,0x00, 0xe1,0xff,0xfd,0xff,0xa0,0x02,0x18,0x00, // 11360
0x02,0x00,0xd5,0xff,0x31,0x00,0xde,0xff, 0xdf,0xff,0x0b,0x00,0xbd,0xff,0x19,0x00, // 11376
0x2c,0x00,0x5f,0x00,0xdf,0xff,0xe9,0xff, 0xfc,0xff,0xfd,0xff,0xf9,0xff,0x9b,0xfd, // 11392
0x28,0xff,0x70,0x00,0x1c,0x00,0x6c,0x00, 0x08,0x00,0xc8,0xff,0x7f,0x00,0x05,0x00, // 11408
0xec,0xff,0x5c,0x0b,0xce,0xff,0x01,0x00, 0xda,0xff,0x55,0x00,0x03,0x00,0x72,0x00, // 11424
0x2b,0x00,0xf9,0xff,0xf0,0xff,0xf2,0xff, 0xfe,0xff,0xf5,0xff,0x27,0x00,0x03,0x00, // 11440
0xea,0xff,0xed,0xff,0xc4,0x00,0x46,0x00, 0xf7,0xff,0x12,0x00,0x47,0x00,0xf8,0xff, // 11456
0xa6,0xff,0x47,0xff,0x12,0x00,0xe9,0xff, 0xb4,0x00,0xea,0xff,0xfc,0xff,0x87,0x06, // 11472
0xa7,0x00,0xb1,0xff,0x03,0xff,0x0f,0x00, 0xf3,0xfe,0xf7,0xff,0x0a,0x00,0x03,0x00, // 11488
0x46,0x00,0xfd,0xff,0x42,0xff,0x0e,0x00, 0x3b,0xff,0x68,0x00,0x9a,0xff,0x25,0x00, // 11504
0xd3,0x00,0xeb,0xff,0xe0,0xff,0xea,0xff, 0x01,0x00,0x9e,0xff,0xab,0xff,0x71,0x01, // 11520
0xb4,0xfe,0x17,0x00,0xd9,0x04,0xd0,0xfe, 0x59,0xff,0xa6,0xff,0x3e,0x00,0x75,0xff, // 11536
0x0b,0x00,0x79,0xff,0x78,0xff,0xef,0xff, 0x79,0x00,0xba,0xfe,0x27,0x00,0x92,0x00, // 11552
0xe5,0xff,0xf3,0xff,0x6b,0xff,0x30,0x00, 0x67,0x06,0xbb,0xff,0x38,0x00,0x43,0x00, // 11568
0x52,0x01,0xe3,0x00,0x42,0x00,0x7b,0x00, 0x68,0xff,0x54,0x00,0x84,0x00,0x6d,0xff, // 11584
0x9f,0xff,0x62,0xff,0x0f,0xff,0xc5,0xff, 0xf3,0xff,0xe8,0xff,0xcf,0xff,0x55,0xfe, // 11600
0x9b,0xff,0xcc,0xff,0x31,0x00,0x3d,0x00, 0xaf,0xff,0x47,0xff,0xe8,0xff,0x7e,0xff, // 11616
0x2c,0x00,0xca,0xff,0xd8,0xff,0x60,0x00, 0xe3,0xff,0xd3,0xff,0x2d,0x00,0x23,0xff, // 11632
0xa8,0xff,0x2e,0x00,0xd2,0xff,0x7c,0x00, 0x2f,0xff,0xbd,0xff,0xb5,0xff,0xee,0x05, // 11648
0x27,0x00,0x28,0x00,0x5e,0x00,0x2c,0x00, 0x41,0x00,0x4b,0xf7,0x00,0xff,0x06,0x00, // 11664
0x6b,0xff,0x13,0x00,0xf2,0xfe,0x6b,0x00, 0x7d,0xff,0xa2,0xff,0x4b,0x00,0x8f,0xff, // 11680
0x3d,0xff,0x80,0x00,0x5d,0xff,0x6a,0x00, 0xbf,0xff,0x68,0xff,0xf8,0xfe,0x81,0x00, // 11696
0x4e,0x00,0xc2,0xff,0x57,0x00,0x6c,0x00, 0x44,0x00,0xa6,0xff,0x18,0x00,0x73,0x00, // 11712
0xed,0xff,0xcb,0xff,0x6c,0x00,0x0d,0x00, 0x1c,0x00,0xb4,0xff,0xe4,0xff,0x57,0xff, // 11728
0xc0,0xff,0xf6,0xff,0x68,0x00,0xb9,0xff, 0x74,0x00,0x9f,0xff,0x2a,0xff,0x83,0x00, // 11744
0xa0,0xff,0xcd,0xff,0xec,0xff,0x80,0xff, 0xb5,0xff,0x29,0x00,0x88,0x00,0x2e,0x00, // 11760
0x7c,0xff,0x63,0x00,0x63,0xff,0xf4,0xff, 0x1b,0x00,0xb3,0xff,0x40,0x00,0x48,0xff, // 11776
0x34,0x00,0xb0,0xff,0xc0,0xff,0x09,0x00, 0xe0,0xff,0x04,0x00,0x8b,0xff,0xb3,0xff, // 11792
0x0d,0x00,0x44,0x00,0xb8,0x09,0xdd,0xff, 0x26,0x00,0x52,0x00,0xb7,0xff,0xfb,0xff, // 11808
0xeb,0xff,0x93,0xff,0x33,0x00,0xd5,0xff, 0xc7,0xff,0xf0,0xff,0x32,0x00,0xe3,0xff, // 11824
0x35,0x00,0x46,0x00,0xf4,0xff,0xa0,0xff, 0x2a,0x00,0x11,0x00,0x40,0xfe,0xf7,0xff, // 11840
0xc8,0xff,0xd4,0xff,0xfa,0xff,0xe1,0xff, 0x38,0x00,0x68,0xff,0xf4,0xff,0xf4,0xff, // 11856
0xfe,0xfd,0x16,0x00,0xfe,0xff,0xd6,0xff, 0x5d,0x00,0xfd,0xff,0x24,0x00,0x04,0x00, // 11872
0xb8,0xff,0x27,0x00,0x0f,0x00,0x39,0x00, 0x23,0x00,0xeb,0xff,0xf3,0xff,0xf3,0xff, // 11888
0xf3,0xff,0x06,0x00,0xe7,0xff,0xf7,0xff, 0xe7,0xff,0x0a,0x00,0x0c,0x00,0x87,0xff, // 11904
0xbe,0xff,0xac,0xff,0x81,0x00,0xaa,0xff, 0xe9,0xff,0x3a,0x00,0x8f,0x0a,0x0b,0x00, // 11920
0x10,0x00,0xd7,0xff,0xcc,0xff,0xd9,0xff, 0xdd,0xff,0x5f,0x00,0x18,0x00,0xff,0xff, // 11936
0x1a,0x00,0x3d,0x00,0xb4,0xff,0xf8,0xff, 0xcf,0xff,0x0e,0x00,0x23,0x00,0xc9,0xfe, // 11952
0x4a,0x00,0xa3,0xff,0x2b,0x00,0x84,0x00, 0x09,0x00,0xcf,0xff,0x99,0x00,0x13,0x00, // 11968
0xdd,0xff,0xde,0x01,0x0d,0x00,0xf3,0xff, 0x8a,0xff,0x21,0x00,0xc5,0xff,0x42,0x00, // 11984
0x2d,0x00,0xf2,0xff,0xf3,0xff,0xc5,0xff, 0x19,0x00,0xec,0xff,0x2d,0x00,0x23,0x00, // 12000
0x1f,0x00,0x45,0x00,0xf4,0xff,0xe3,0xff, 0x47,0x00,0x03,0x00,0x39,0x00,0x21,0x00, // 12016
0xee,0xff,0x87,0xff,0x0b,0x00,0xf9,0xff, 0x0a,0x00,0x03,0x00,0x10,0x00,0x5b,0xff, // 12032
0x07,0x00,0xf1,0xff,0xdc,0xff,0xf0,0xff, 0xe1,0xff,0xf1,0xff,0x4a,0x00,0x05,0x00, // 12048
0x6d,0x00,0xc5,0xff,0xfe,0xff,0x18,0x00, 0xfe,0xff,0x7d,0xfa,0xcf,0xff,0xf7,0xff, // 12064
0xcd,0xff,0xd8,0xff,0xeb,0xff,0xec,0xff, 0x27,0x00,0x03,0x01,0xfe,0xff,0x5f,0xff, // 12080
0x65,0x00,0x37,0x01,0xb5,0xff,0x83,0x00, 0xdc,0xff,0x12,0x00,0x58,0xff,0x05,0x00, // 12096
0x40,0x00,0x67,0x00,0xf8,0xff,0xe0,0xff, 0x6a,0x00,0xea,0xff,0x3e,0x00,0x46,0xff, // 12112
0xe4,0xff,0x45,0x00,0xf3,0xff,0xd2,0xff, 0x17,0xff,0xb5,0x00,0xe4,0xfe,0xc3,0xff, // 12128
0xd6,0xff,0x15,0x00,0x34,0x00,0x83,0x00, 0xeb,0xff,0xab,0xff,0x90,0xff,0x19,0x00, // 12144
0x14,0x00,0x58,0x00,0x8f,0x00,0x4c,0x00, 0xfd,0xff,0x32,0x01,0x32,0x00,0x78,0x00, // 12160
0xb6,0x00,0x0c,0x00,0x1c,0x00,0x2c,0x00, 0xf5,0xff,0x52,0x00,0xe3,0xff,0x53,0x00, // 12176
0xc6,0xff,0x12,0x00,0xcf,0xff,0x02,0x00, 0xfd,0xff,0x4a,0x00,0x54,0xff,0xa7,0x00, // 12192
0xf9,0xff,0x3f,0xff,0x10,0x00,0x83,0xff, 0x5b,0xff,0xd6,0xff,0xcb,0x00,0xd0,0xfe, // 12208
0x18,0x00,0xe3,0x00,0x95,0xff,0xd2,0xfe, 0x53,0x00,0x6f,0x00,0xaf,0x00,0xf7,0xff, // 12224
0x99,0xff,0x3b,0xff,0x06,0x00,0x09,0x00, 0x16,0x00,0x90,0xff,0x54,0x00,0xe1,0xff, // 12240
0x6a,0xff,0x4b,0x00,0xea,0x00,0xa2,0xff, 0xe2,0xff,0xf2,0xff,0xa9,0x00,0x20,0x00, // 12256
0xfb,0xff,0x89,0x00,0xc4,0xfd,0xd1,0xff, 0xe3,0xff,0x73,0x00,0x33,0x00,0x26,0xff, // 12272
0x69,0x00,0x2f,0x00,0xa9,0xff,0x9a,0xff, 0xc8,0xff,0x50,0x00,0x0a,0x01,0xb3,0xff, // 12288
0x77,0xff,0x08,0x00,0x5a,0x00,0x3b,0x00, 0xfb,0xff,0x8d,0x00,0x02,0x01,0x63,0x01, // 12304
0x4e,0x00,0x62,0x00,0x93,0xff,0xbc,0xff, 0x3a,0x00,0xe6,0xfe,0x73,0x00,0xdd,0xff, // 12320
0x16,0x00,0x30,0x00,0xf2,0x00,0xde,0x00, 0x5f,0xff,0xac,0x00,0xc6,0xff,0x23,0xff, // 12336
0x76,0xff,0x00,0x00,0x4c,0x01,0x0f,0x00, 0x5e,0x00,0xdb,0xff,0x97,0x00,0x44,0x00, // 12352
0x44,0x00,0x4b,0x00,0xb2,0xff,0x48,0x00, 0x73,0x00,0x16,0x00,0xa9,0xff,0xd6,0xff, // 12368
0x31,0x00,0xbf,0xff,0xeb,0xff,0x22,0x00, 0x4d,0x00,0x1f,0x00,0x47,0x00,0xf6,0xff, // 12384
0xff,0xff,0x0b,0x00,0x19,0x00,0xf9,0xff, 0xe8,0xff,0x1c,0x00,0xd2,0x00,0xb6,0xff, // 12400
0xc1,0xff,0xb6,0xff,0x31,0x00,0x08,0x00, 0x0a,0x00,0xe7,0xff,0x0a,0x00,0xd3,0xff, // 12416
0xd6,0x00,0xed,0xff,0xe0,0xff,0x1e,0x00, 0xb7,0xff,0x26,0x00,0x1b,0x00,0xb6,0xff, // 12432
0xeb,0xff,0xe4,0xff,0x09,0x00,0xd3,0xff, 0xf7,0xff,0xd5,0xff,0x10,0x00,0x1f,0x00, // 12448
0x15,0x00,0xbd,0x00,0xd3,0xff,0x1c,0x00, 0x0e,0x00,0x1a,0x00,0xf3,0xff,0x92,0x00, // 12464
0xd7,0xff,0x2c,0x00,0x54,0x00,0xe0,0xff, 0x1d,0x00,0xfd,0xff,0xd1,0xff,0xdc,0xff, // 12480
0x02,0x00,0x4b,0x00,0xdb,0xff,0xb3,0xff, 0x63,0x00,0x2f,0x00,0x0a,0x00,0xdf,0xff, // 12496
0xc8,0xff,0x4c,0x00,0x31,0x00,0x11,0x00, 0xf1,0xff,0xf4,0xff,0x00,0x00,0x1a,0x00, // 12512
0x57,0x03,0x0b,0x00,0x09,0x00,0xb4,0xff, 0xff,0xff,0xe4,0xff,0xe0,0xff,0xf9,0xff, // 12528
0xec,0xff,0xe4,0xff,0x12,0x00,0x1d,0x00, 0x9f,0xff,0x10,0x00,0x40,0x00,0x1e,0x00, // 12544
0xfe,0xff,0x27,0x00,0x1e,0x00,0x90,0xff, 0x3a,0x00,0x3f,0x00,0x9e,0xff,0x2b,0x00, // 12560
0xb4,0xff,0x73,0x00,0x98,0xff,0x42,0x00, 0x3d,0x00,0xe6,0xff,0x17,0x00,0x0f,0x00, // 12576
0xef,0xff,0x9c,0xff,0xe5,0xff,0xf2,0xff, 0xd7,0xff,0x1e,0x00,0x1f,0x00,0xee,0xff, // 12592
0xc0,0xff,0x23,0x00,0x1d,0x00,0xf9,0xff, 0x42,0x02,0x2b,0x00,0x7a,0x00,0x19,0x00, // 12608
0x49,0x00,0x12,0x00,0x22,0x00,0xfe,0xff, 0x37,0x00,0x5f,0x00,0x56,0x00,0x06,0x00, // 12624
0xda,0xff,0xf9,0xff,0xde,0xff,0x18,0x00, 0x58,0x00,0x09,0x00,0xfd,0xff,0xa9,0x00, // 12640
0x2c,0x00,0xae,0x01,0xfb,0xff,0xd3,0xff, 0xf4,0xff,0xcc,0x00,0xd1,0xff,0x48,0x00, // 12656
0x60,0x00,0x34,0x00,0x40,0x00,0xce,0xff, 0xa3,0x00,0x05,0x00,0x09,0x00,0x7d,0x00, // 12672
0x19,0x00,0x2f,0x00,0x1f,0x00,0x23,0x00, 0xb1,0xff,0x51,0x00,0x08,0xff,0xe6,0xfe, // 12688
0xd4,0xff,0x13,0x00,0x0c,0x00,0xce,0xff, 0x13,0x00,0xbd,0xff,0xb5,0xff,0x61,0x00, // 12704
0xd3,0xfe,0x2a,0x00,0x80,0x00,0xec,0x00, 0xcf,0xff,0x0d,0x01,0xe3,0x00,0xf8,0xff, // 12720
0xdb,0xff,0x05,0x00,0x0c,0x00,0x18,0x00, 0x20,0x00,0x39,0x00,0xb5,0xff,0x4e,0x00, // 12736
0xe7,0xfe,0x48,0x00,0xf0,0xff,0x32,0x01, 0xde,0xff,0x52,0x00,0xea,0xff,0x31,0xff, // 12752
0x25,0x00,0xf6,0xff,0x19,0x00,0xc9,0xff, 0xe3,0xff,0xca,0xff,0xb7,0xff,0xb1,0xff, // 12768
0x2d,0x01,0xfd,0xff,0xd8,0xff,0x97,0xfe, 0xe0,0xff,0x26,0x00,0x72,0x00,0x0b,0x00, // 12784
0x22,0x00,0x0f,0x00,0x77,0x00,0x29,0x00, 0x4e,0x00,0x0b,0x00,0x0d,0x00,0xde,0xfe, // 12800
0xed,0xff,0x0c,0x00,0x73,0xff,0x0b,0x00, 0xcc,0xff,0xf1,0xff,0x7a,0x00,0x1b,0xff, // 12816
0xcd,0xff,0x2e,0x00,0x77,0xfe,0xf5,0xff, 0xe9,0xff,0x27,0x00,0xfa,0xff,0xfc,0xff, // 12832
0x05,0x00,0xf5,0xff,0xa0,0xff,0x35,0x00, 0x21,0x00,0xf1,0xff,0x9c,0x00,0x3c,0x00, // 12848
0x13,0x00,0xf8,0xff,0x22,0x00,0x16,0x01, 0xaa,0xff,0x2c,0x00,0x42,0x00,0x20,0x00, // 12864
0xf1,0x00,0x40,0x00,0x44,0x00,0x48,0xff, 0xd2,0x00,0xe0,0xfe,0x65,0x00,0x0d,0xff, // 12880
0xc6,0x00,0xa4,0x00,0x3b,0x00,0x0e,0x00, 0xc9,0xff,0x4c,0x00,0x24,0xff,0xbf,0xff, // 12896
0xe4,0xfe,0xce,0xff,0x00,0x03,0xfa,0xff, 0x2f,0x01,0xc1,0xff,0x16,0x00,0x08,0x00, // 12912
0x31,0x00,0xd2,0xff,0x47,0x00,0xcc,0xff, 0xe7,0xff,0xf2,0xff,0xd2,0xff,0xc6,0xff, // 12928
0x17,0x00,0xb3,0xff,0xee,0xff,0x14,0x00, 0x30,0x00,0x01,0x00,0x2a,0x00,0xe9,0xff, // 12944
0xeb,0xff,0x2a,0x00,0x0c,0x00,0x29,0x00, 0x44,0x00,0xef,0xff,0x2a,0x00,0x0e,0x00, // 12960
0x1d,0x00,0x1b,0x00,0x23,0x00,0x35,0x00, 0xf0,0xff,0x2b,0x00,0x04,0x00,0xf6,0xff, // 12976
0x36,0x00,0x11,0x00,0x07,0x00,0x11,0x00, 0x19,0x00,0x07,0x00,0x10,0x00,0x9e,0xff, // 12992
0x2d,0x00,0xfe,0xff,0xe5,0xff,0xcf,0xff, 0x0f,0x00,0x0b,0x00,0xd8,0xff,0x05,0x00, // 13008
0xfb,0xff,0x21,0x00,0xf4,0xff,0x06,0x00, 0x2f,0x00,0xf7,0xff,0xf6,0xff,0xfc,0xff, // 13024
0x25,0x00,0x5f,0x00,0xf0,0xff,0xe2,0xff, 0x07,0x00,0xd0,0xff,0x25,0x00,0x0d,0x00, // 13040
0x60,0x00,0x21,0x00,0x51,0x00,0x1a,0x00, 0xed,0xff,0xdf,0xff,0x20,0x00,0x22,0x00, // 13056
0xd6,0xff,0xf7,0xff,0x24,0x01,0xe8,0xff, 0x95,0x00,0x6c,0x00,0xa3,0xff,0xab,0xff, // 13072
0x2c,0x00,0x3b,0x00,0xf7,0xff,0x29,0x00, 0x6a,0x00,0xa7,0x00,0xe2,0xff,0xb8,0xff, // 13088
0x18,0x00,0x08,0x00,0x2a,0x00,0x78,0x00, 0xdd,0xff,0xd8,0xff,0xff,0xff,0xc9,0xff, // 13104
0x4b,0xff,0xfe,0xff,0x0c,0x00,0x32,0x00, 0x51,0x08,0xf5,0xff,0x7b,0xff,0x16,0x00, // 13120
0x07,0x00,0x06,0x00,0xf4,0xff,0x08,0x00, 0x2d,0x00,0x12,0x00,0xe3,0xff,0xd1,0xff, // 13136
0xd9,0xff,0x1c,0x00,0xdc,0xff,0xa6,0xff, 0x84,0xff,0x05,0x00,0x27,0x00,0xe6,0xff, // 13152
0x90,0xff,0x18,0x00,0x4b,0x00,0x33,0x00, 0x21,0x00,0xf8,0xff,0xc1,0xff,0xa4,0xff, // 13168
0x58,0x00,0x33,0x00,0x77,0x00,0x69,0x00, 0x65,0x00,0xf1,0xff,0xf7,0xff,0x0f,0x00, // 13184
0x8e,0xff,0x56,0x00,0x04,0x00,0x1b,0x00, 0x1c,0x00,0x5e,0x00,0x46,0x00,0x5c,0x00, // 13200
0xee,0xfe,0x0c,0x01,0x4f,0x00,0x7e,0xff, 0xcf,0x00,0xbd,0xff,0x17,0x00,0xab,0xfe, // 13216
0xed,0xff,0xcc,0xff,0x89,0xff,0xbc,0xff, 0x49,0x00,0x93,0xff,0x3a,0x00,0x1c,0x00, // 13232
0xc7,0xff,0x10,0x00,0x64,0xff,0x06,0x00, 0x3d,0x00,0x11,0x00,0x62,0xfe,0x82,0xfe, // 13248
0x17,0x00,0x12,0x00,0x2f,0x00,0x91,0x00, 0x5a,0xff,0xd2,0x00,0x2b,0x00,0xef,0xfe, // 13264
0xdf,0xff,0xca,0xff,0x9a,0xff,0x95,0x00, 0x09,0x00,0xec,0x01,0x29,0x01,0x88,0xff, // 13280
0x6c,0x01,0xea,0xff,0xb5,0x00,0x1b,0x00, 0x1c,0xf9,0x30,0xff,0xd2,0xff,0xd9,0xff, // 13296
0x85,0xfe,0x29,0x00,0xd0,0xff,0x30,0x00, 0x04,0x00,0x7b,0x00,0xfd,0xff,0x8b,0xff, // 13312
0xa4,0xf8,0x25,0x00,0x0a,0x00,0x51,0x00, 0xf2,0x02,0x3f,0x00,0x78,0x00,0x63,0x00, // 13328
0x05,0x00,0xbd,0x00,0x9c,0xff,0xbe,0xfe, 0x39,0x00,0xa8,0xff,0xbe,0xff,0xfb,0xff, // 13344
0x5f,0xff,0xe8,0x01,0xa4,0xff,0xeb,0xfd, 0x96,0xff,0x50,0x00,0xf1,0xff,0xe9,0xff, // 13360
0x15,0x03,0x59,0xff,0x29,0x00,0x83,0xff, 0x8c,0xff,0x7d,0x02,0x6b,0xff,0xda,0xff, // 13376
0x72,0x00,0x8f,0x00,0xe3,0xfe,0xb0,0xff, 0xf0,0xff,0xb2,0xff,0x2e,0x00,0x94,0x00, // 13392
0xb0,0xff,0x05,0x00,0xa4,0xff,0x93,0x00, 0x19,0x00,0x13,0xff,0x64,0x01,0x71,0xff, // 13408
0xb6,0xff,0xf3,0xff,0x8b,0x00,0x89,0x01, 0x0e,0x00,0x15,0x00,0xf3,0x02,0x2c,0xfd, // 13424
0x8d,0x00,0xc2,0xff,0x54,0x00,0xc5,0xff, 0xa7,0x00,0x25,0xfe,0xce,0xff,0xd1,0xfe, // 13440
0xca,0xff,0x76,0x00,0x83,0xff,0x23,0xfe, 0x00,0x01,0xd6,0xff,0x73,0xff,0xa8,0x02, // 13456
0x32,0xff,0xe8,0xff,0xe7,0x00,0xfa,0xff, 0x5e,0x00,0x47,0x00,0xc1,0xff,0x66,0xff, // 13472
0x25,0x00,0x10,0x00,0x4e,0x00,0x78,0x00, 0xfd,0xff,0xe4,0xff,0x6e,0xff,0x65,0xff, // 13488
0xda,0xff,0xf0,0xff,0xb7,0xff,0xe2,0xff, 0xfb,0x00,0xc4,0xff,0xff,0xff,0x4e,0xff, // 13504
0xa0,0xff,0xfd,0xff,0xfe,0xff,0x42,0x00, 0xe5,0xff,0x0f,0x00,0xd2,0xff,0xef,0xff, // 13520
0x9e,0xff,0xd3,0xff,0x78,0x00,0x90,0xff, 0xce,0xff,0x40,0x00,0xf6,0xff,0x4a,0xff, // 13536
0xfd,0xff,0x63,0x00,0x38,0x00,0xb4,0xff, 0x3f,0xfe,0xc9,0xff,0x32,0x00,0xe7,0xff, // 13552
0xad,0xff,0x90,0xff,0x52,0x00,0x97,0xff, 0x42,0x00,0xb7,0xff,0x18,0x00,0x02,0x00, // 13568
0xf5,0xff,0xde,0xff,0xf6,0xff,0xd5,0xff, 0xae,0xff,0xfd,0xff,0x01,0x00,0x2a,0x03, // 13584
0xc0,0xff,0x54,0x00,0x0a,0x00,0xbc,0xfe, 0xfe,0xff,0x0c,0x00,0x59,0x00,0x37,0x00, // 13600
0x20,0x00,0x5f,0x00,0x7c,0xff,0x9e,0xff, 0xac,0x02,0xf8,0xff,0x71,0x00,0xee,0xfe, // 13616
0x09,0x00,0x74,0x00,0x6f,0x00,0x37,0x00, 0x37,0x00,0xf3,0xff,0x36,0x00,0xa5,0xff, // 13632
0x84,0x01,0x9f,0x00,0xca,0xff,0x6d,0xfd, 0x2e,0x00,0xc2,0xff,0xa6,0xff,0xf5,0xff, // 13648
0xed,0xff,0x8b,0x00,0x0e,0x00,0xc1,0xff, 0x10,0x00,0xd0,0xff,0xa4,0xff,0x01,0x00, // 13664
0x0c,0x00,0xcb,0xff,0xe8,0xff,0xeb,0xff, 0xea,0xff,0x1d,0x00,0xe1,0xff,0x2b,0x00, // 13680
0xe1,0xff,0xd4,0xff,0x8b,0xff,0x71,0x00, 0x14,0x00,0xbf,0xff,0xf6,0xff,0x79,0x00, // 13696
0xed,0xff,0x14,0x00,0x3e,0x00,0xc2,0xff, 0xcb,0xff,0xd3,0xff,0x2c,0x00,0x63,0x00, // 13712
0xe9,0xff,0x72,0x00,0x8e,0xff,0xb0,0xff, 0x10,0x02,0x08,0x00,0x12,0x00,0x10,0x00, // 13728
0x0e,0x00,0x18,0x00,0x47,0x00,0x41,0x00, 0x48,0x00,0x97,0xff,0x4e,0x00,0xad,0xff, // 13744
0xa3,0xff,0x21,0x00,0x13,0x00,0x11,0x00, 0xe7,0xff,0xa2,0x00,0x10,0x00,0xe4,0xfe, // 13760
0x15,0x00,0x82,0x01,0x67,0x00,0xb8,0x03, 0x2d,0x00,0xb5,0xff,0xbd,0xff,0x81,0xff, // 13776
0x4e,0x01,0xdf,0xff,0x07,0x00,0x1c,0x00, 0x4c,0xfe,0x4d,0x00,0xfc,0xff,0x4f,0xff, // 13792
0xdd,0xff,0x2b,0x00,0xc7,0xff,0x13,0x00, 0x0f,0x00,0xe0,0xff,0x14,0x00,0x93,0x00, // 13808
0x3c,0x00,0xaa,0xff,0xf0,0xff,0x74,0x00, 0xc8,0xff,0x38,0x00,0x15,0x00,0x88,0xff, // 13824
0x8f,0x00,0xe7,0xff,0x7a,0x00,0x18,0x00, 0x0f,0x00,0x05,0x00,0x15,0xff,0x58,0x02, // 13840
0x82,0xff,0x14,0x00,0x5b,0x00,0xfb,0xff, 0x93,0xff,0xe6,0xff,0xe7,0xff,0xdd,0xff, // 13856
0xbd,0x00,0x0b,0x00,0x01,0x00,0x43,0xff, 0x08,0x00,0x81,0x00,0x37,0x00,0xb8,0x03, // 13872
0xa4,0xff,0x9d,0xff,0x01,0x00,0x29,0x00, 0xbc,0xff,0xca,0xff,0x3b,0x00,0xe9,0xff, // 13888
0x83,0xff,0x71,0x00,0xe1,0xff,0xca,0xfe, 0x37,0x00,0xbf,0xff,0x8f,0xff,0xeb,0xff, // 13904
0xc2,0xff,0x8a,0xff,0x3a,0x00,0xca,0xff, 0x7c,0xff,0xba,0xff,0x90,0x00,0x8e,0x00, // 13920
0xc5,0xff,0xe4,0xff,0xe1,0x00,0x22,0x00, 0x49,0xff,0x17,0x00,0x53,0x00,0x8c,0xff, // 13936
0xed,0xff,0x30,0x00,0x5b,0xfe,0x44,0x00, 0xec,0xff,0xd9,0xff,0x09,0x00,0x79,0xff, // 13952
0xd0,0xff,0xf7,0xff,0x85,0x00,0x3b,0xff, 0x09,0x00,0x36,0x00,0x23,0x00,0xa9,0xff, // 13968
0x10,0x00,0x1d,0x00,0xc4,0x00,0x4d,0xff, 0x24,0x00,0xbc,0xff,0x5a,0xff,0x76,0x00, // 13984
0x2a,0x00,0xde,0xff,0x4c,0xff,0xa7,0x01, 0x33,0x00,0xed,0xff,0xc6,0xfe,0xfe,0x00, // 14000
0x51,0xff,0xe2,0x00,0x8b,0x00,0x7c,0x00, 0x02,0x00,0x34,0x00,0xc8,0xff,0xbe,0xff, // 14016
0xbe,0xff,0xee,0xff,0x0c,0x01,0x10,0x00, 0x3b,0x00,0x44,0x00,0x6a,0x00,0xc3,0xff, // 14032
0xfb,0x00,0x54,0x00,0xfa,0xff,0xa2,0xff, 0x0c,0x00,0x21,0x00,0xb4,0xff,0x12,0x00, // 14048
0xc5,0xff,0x08,0x00,0x54,0x00,0xfb,0xff, 0x1e,0xff,0x0d,0x00,0xea,0xff,0x18,0x00, // 14064
0x25,0x00,0x6d,0x00,0xda,0xff,0xbc,0xff, 0x18,0x00,0x0b,0x01,0x28,0x00,0xe5,0xff, // 14080
0xf8,0xff,0x11,0x00,0xe4,0xff,0xec,0xff, 0xb2,0xff,0x18,0x00,0xdb,0xff,0xe5,0xff, // 14096
0x16,0x00,0x24,0x00,0x04,0x00,0xf5,0xff, 0xc7,0xff,0x03,0x00,0x23,0x06,0x09,0x00, // 14112
0xca,0xff,0xfe,0xff,0xf6,0xff,0x40,0x00, 0xb5,0x00,0xf2,0xff,0xea,0xff,0xea,0xff, // 14128
0x1c,0x00,0x29,0x00,0x4f,0xff,0x0c,0x00, 0x02,0x00,0xb2,0x00,0x28,0x00,0x33,0x00, // 14144
0xc4,0xff,0x10,0xff,0xf4,0xff,0x17,0x00, 0x22,0x00,0x38,0x00,0x0f,0x00,0xf0,0xff, // 14160
0xf9,0xff,0x1d,0x00,0x7c,0x00,0x09,0x00, 0x40,0x00,0x19,0x00,0x03,0x00,0xf4,0xff, // 14176
0xf8,0xff,0x29,0x00,0xda,0xff,0x3a,0x00, 0xdc,0xff,0xce,0xff,0xee,0xff,0xdc,0xff, // 14192
0x24,0x00,0x16,0x00,0x16,0x00,0xd1,0xff, 0xd0,0xff,0xe7,0xff,0x30,0x00,0xcf,0xff, // 14208
0xdb,0x00,0x35,0x00,0x07,0x08,0xf6,0xff, 0x0b,0x00,0xf5,0xff,0x0f,0x00,0xea,0xff, // 14224
0x7b,0xff,0x0d,0x00,0xc5,0xff,0xc6,0xff, 0xcd,0xff,0x0f,0x00,0xd3,0xff,0x51,0x00, // 14240
0xfa,0xff,0x0a,0x00,0x15,0x00,0x16,0x00, 0xfe,0xff,0xd3,0xff,0x55,0xff,0x01,0x00, // 14256
0x20,0x00,0x0d,0x00,0x98,0x00,0x40,0x00, 0x00,0x00,0x12,0x00,0x67,0x00,0xfe,0xff, // 14272
0x01,0x00,0xf1,0xff,0x2c,0x00,0x09,0x00, 0x20,0x00,0x29,0xff,0x78,0x00,0x11,0x00, // 14288
0xf6,0xff,0xaf,0xff,0x06,0x00,0xa5,0xff, 0xfb,0xff,0xe4,0xff,0xc5,0xff,0xb8,0xff, // 14304
0x0b,0x00,0xed,0xff,0x6a,0x00,0x21,0x00, 0x4a,0x00,0x60,0x00,0x18,0xff,0x3c,0x00, // 14320
0xf4,0xff,0xf2,0xff,0xfa,0xff,0xd7,0xff, 0x73,0xff,0x95,0xff,0xc2,0xff,0x2a,0x00, // 14336
0x1e,0x00,0x1b,0x00,0x7f,0xff,0xbb,0xff, 0x39,0xfd,0x63,0xff,0xea,0xff,0x56,0xff, // 14352
0x7a,0xff,0xec,0xff,0x48,0x00,0x3e,0x00, 0x38,0x00,0x7e,0xfb,0xa4,0x03,0x09,0x00, // 14368
0x3d,0x00,0xda,0xff,0x00,0x00,0x0a,0xff, 0x71,0x00,0xce,0xff,0xd6,0xff,0x3a,0x00, // 14384
0x5c,0x00,0x0e,0x00,0xfe,0xff,0xcd,0xff, 0x9b,0x00,0x13,0xfc,0x43,0x00,0xdf,0xff, // 14400
0x08,0x00,0x6e,0x00,0xaf,0xff,0x03,0x00, 0x14,0x00,0x0b,0x00,0xc9,0xff,0x11,0x00, // 14416
0xe9,0xff,0x1e,0x00,0x02,0x00,0xd3,0xff, 0x8f,0x00,0x2d,0xff,0xb4,0x03,0x65,0x00, // 14432
0x13,0x00,0xf2,0xff,0xab,0xff,0xe5,0xff, 0x07,0x00,0x78,0x00,0xb0,0x00,0x24,0x00, // 14448
0xa8,0xff,0x6c,0x00,0x3e,0x00,0x93,0x00, 0xf3,0x01,0x05,0x00,0x8d,0xff,0x81,0xff, // 14464
0xa8,0xff,0xea,0xff,0xab,0xff,0x85,0x00, 0xe6,0xff,0xb1,0x00,0xba,0xff,0x1f,0x00, // 14480
0x0e,0x00,0x56,0x00,0xa8,0x00,0xea,0xff, 0xf7,0xff,0x6b,0xff,0x11,0x00,0x2a,0x00, // 14496
0x58,0x00,0xd5,0xff,0x17,0x00,0xef,0x02, 0x9a,0xff,0xfe,0xff,0x09,0x00,0xa5,0xff, // 14512
0xe3,0xff,0xd7,0xff,0x52,0x00,0xda,0xff, 0x1e,0x00,0x61,0x00,0x6d,0xfa,0xfb,0x00, // 14528
0x7f,0xff,0x6e,0x00,0xfe,0xff,0x2e,0x00, 0x67,0x00,0x66,0xfb,0x7d,0x00,0xfc,0xff, // 14544
0x86,0xff,0x0f,0x00,0xd3,0xff,0x68,0x02, 0xd8,0xff,0x3f,0x04,0x4b,0xff,0xd1,0xff, // 14560
0xe8,0xff,0xf7,0xff,0x6c,0x00,0x25,0x00, 0x6a,0x00,0x3e,0x00,0x63,0x00,0xee,0xff, // 14576
0x36,0x00,0x45,0x00,0xcc,0xff,0xad,0x00, 0x76,0xff,0xcd,0x00,0xf7,0xff,0x25,0x00, // 14592
0x91,0xff,0xff,0x01,0xed,0xff,0x11,0x00, 0x23,0x00,0xd3,0xff,0x5b,0xfe,0xdc,0xff, // 14608
0xca,0xff,0xfe,0xff,0xa1,0xff,0x1d,0x00, 0x07,0x00,0x2e,0x04,0xcc,0xff,0x52,0xff, // 14624
0x85,0xff,0x4f,0xff,0xdd,0xff,0x43,0xff, 0x53,0x00,0xdb,0xff,0x4f,0x00,0x08,0x00, // 14640
0x79,0x00,0x09,0x00,0xf2,0xff,0xef,0xff, 0x06,0x00,0x35,0x00,0x9d,0xff,0xae,0xff, // 14656
0x58,0x00,0xd4,0xfe,0xde,0xfb,0x1a,0x00, 0xe3,0x00,0xe5,0x03,0x51,0x00,0x11,0x00, // 14672
0xd5,0xff,0x0e,0x00,0x08,0x00,0xe7,0xff, 0x6d,0xff,0xc9,0xff,0xbc,0xff,0xbc,0xff, // 14688
0x46,0x00,0x38,0x00,0x59,0x00,0xf4,0x03, 0xf0,0xff,0xe2,0xff,0x33,0x00,0x9f,0xff, // 14704
0xd5,0xff,0xf2,0xff,0xfa,0xff,0xb6,0x00, 0x42,0x00,0xf8,0xff,0xc5,0xff,0x5f,0xfc, // 14720
0xad,0xfd,0x3b,0x00,0xc9,0xff,0x76,0x00, 0xaf,0xff,0xcf,0x01,0x3e,0x00,0xfc,0xff, // 14736
0x10,0x00,0xd9,0x00,0x97,0xff,0x2c,0x00, 0x65,0xff,0xe5,0xf9,0x65,0xff,0xd0,0xff, // 14752
0xba,0xff,0x61,0x00,0xde,0xff,0x9d,0x00, 0x00,0xfd,0x2b,0x00,0x4b,0x01,0xbe,0xfe, // 14768
0x2d,0x00,0x25,0x00,0x46,0x00,0xd2,0xff, 0x3e,0x00,0x9f,0xff,0x14,0x00,0x07,0x00, // 14784
0x54,0x00,0x6d,0x04,0xd8,0xff,0x48,0xff, 0x68,0xff,0x13,0x00,0xdc,0xff,0x34,0x00, // 14800
0xf9,0xff,0x1b,0x00,0x13,0x00,0x68,0x00, 0x3b,0x00,0xdb,0xff,0xc5,0xff,0x1a,0x00, // 14816
0x59,0x00,0x08,0x00,0xaf,0xff,0x8d,0x00, 0x06,0x00,0x0e,0x04,0x66,0x00,0x7b,0x00, // 14832
0xfe,0xff,0xf7,0xff,0xce,0xff,0xf9,0xff, 0xbc,0xff,0xb7,0xff,0x32,0x01,0xfb,0x05, // 14848
0x99,0xff,0xf6,0xff,0xf6,0xff,0xb7,0xfe, 0x07,0x00,0x65,0x00,0xd8,0xff,0xd3,0xff, // 14864
0x1f,0x00,0x49,0x00,0x81,0x00,0x30,0x00, 0x21,0x00,0x3c,0x00,0x8f,0xff,0x39,0x00, // 14880
0x9b,0x00,0x8c,0x01,0x7d,0xff,0xc0,0xff, 0xf1,0xff,0xf3,0xfe,0xbe,0xff,0x1e,0x00, // 14896
0xe6,0xff,0xfd,0xff,0xb6,0xff,0xaf,0xff, 0xf3,0xfe,0x33,0x00,0x0d,0x00,0x87,0x00, // 14912
0xcb,0xff,0x3d,0x00,0xfd,0x02,0xee,0xff, 0x7a,0xff,0x95,0xff,0x2f,0xff,0x3a,0x00, // 14928
0x34,0x00,0xc2,0xff,0xff,0xff,0x96,0xf8, 0x84,0x05,0xda,0xff,0x03,0x00,0x11,0x00, // 14944
0xbd,0xff,0x0c,0x00,0x16,0x00,0xd1,0x00, 0xb6,0xff,0xdb,0x00,0x0e,0x00,0x09,0x00, // 14960
0xe3,0xff,0xeb,0xff,0x7a,0x00,0xf0,0xff, 0x0e,0x00,0x6e,0x00,0xac,0xff,0x12,0x00, // 14976
0x19,0x00,0x29,0x00,0x07,0x00,0x82,0x00, 0xb2,0xff,0xe6,0xff,0x98,0x00,0xc6,0xff, // 14992
0x09,0x00,0xf6,0xff,0xb7,0xff,0x08,0x00, 0xdb,0xff,0x5d,0x00,0xe5,0xff,0x5e,0xff, // 15008
0x57,0x00,0x54,0x00,0x5f,0x00,0xd0,0x00, 0x1d,0x00,0x93,0x00,0x44,0x00,0x0e,0x00, // 15024
0xe6,0xff,0xeb,0xff,0x27,0x00,0xf3,0xff, 0x29,0x00,0xd2,0x01,0x06,0x00,0x98,0xff, // 15040
0xec,0xff,0x04,0x00,0xd7,0xff,0xbb,0xff, 0xc8,0xff,0xb9,0xff,0x20,0x00,0x32,0x00, // 15056
0x2d,0x00,0x98,0xff,0x12,0x00,0x8f,0x00, 0xd3,0xff,0xfc,0xff,0x07,0x00,0xb9,0xff, // 15072
0x4a,0x00,0x47,0x00,0xd9,0xff,0x0c,0x00, 0xe6,0xff,0x77,0x00,0xa6,0x00,0x8d,0x0e, // 15088
0xbe,0xff,0xe3,0xff,0x7f,0x00,0xf5,0xff, 0xff,0xff,0x70,0xff,0x4c,0x00,0x25,0x00, // 15104
0xb3,0x00,0x09,0x00,0x1d,0x00,0x02,0x01, 0xa2,0x00,0x0b,0xff,0x59,0xfe,0xf7,0xff, // 15120
0x71,0x00,0x66,0x00,0x30,0x00,0x21,0x00, 0x2f,0x00,0x16,0x00,0x43,0xff,0xea,0xff, // 15136
0x04,0xff,0xb2,0x00,0x5c,0x00,0x00,0x00, 0xad,0x00,0xa3,0x00,0x07,0x00,0x01,0x00, // 15152
0xf0,0xff,0x5f,0xff,0xa5,0xff,0x03,0x00, 0x29,0xff,0xf1,0xfe,0x92,0x00,0x8e,0xff, // 15168
0x38,0x00,0x47,0x00,0x57,0x00,0x1a,0x00, 0x10,0x00,0xfb,0xff,0xf2,0xff,0xeb,0xff, // 15184
0x2f,0x02,0x9d,0x00,0x0d,0x00,0xa8,0x01, 0x6f,0xff,0xde,0xff,0x0c,0xff,0xde,0xff, // 15200
0x92,0x00,0x07,0x00,0x59,0x00,0x25,0xff, 0x0b,0x00,0x49,0x00,0x0e,0x00,0xa8,0x00, // 15216
0xda,0xfe,0xf1,0xff,0x0a,0x00,0x08,0x00, 0xf7,0xff,0x06,0x00,0xd2,0xff,0xab,0xff, // 15232
0xa9,0xff,0xa8,0xff,0xf9,0x00,0x8d,0xff, 0x7d,0x00,0xf5,0xff,0x06,0x00,0x12,0x00, // 15248
0xf9,0xff,0xfc,0xfe,0x05,0x00,0xf7,0xff, 0x26,0xff,0xde,0xff,0xdd,0xff,0x1e,0x00, // 15264
0x9e,0xff,0x5b,0x00,0xb7,0xff,0xe8,0xfe, 0xf7,0xff,0x31,0x00,0x09,0x00,0x0b,0x00, // 15280
0x4a,0x00,0x78,0xff,0x03,0x00,0x81,0x00, 0x0c,0x00,0xfe,0xfe,0xfd,0xff,0x5a,0x00, // 15296
0x44,0x00,0x64,0xff,0xb1,0xff,0x25,0x00, 0x58,0x00,0x44,0x00,0x9a,0x00,0x81,0xff, // 15312
0x05,0x00,0xd1,0xff,0x98,0xff,0xe8,0xff, 0x3f,0x00,0x32,0xff,0x8a,0xfe,0xed,0xff, // 15328
0x9e,0xff,0x61,0xff,0xb8,0xff,0xb1,0xff, 0x16,0x00,0xe0,0xff,0x02,0x00,0x2d,0x00, // 15344
0x3b,0x00,0xf4,0xff,0x03,0x00,0x5c,0x00, 0x05,0x00,0x28,0x00,0x32,0x00,0x84,0x00, // 15360
0xdf,0xff,0x47,0xff,0xb8,0xff,0xf5,0xfe, 0xc8,0xff,0xd2,0xff,0x1a,0x00,0xd0,0x00, // 15376
0x10,0x00,0xdb,0xff,0x9b,0x00,0xc3,0xff, 0x98,0xff,0xf7,0xff,0x80,0x00,0x7e,0xfe, // 15392
0x8d,0xff,0x4d,0x00,0x97,0x01,0x03,0xff, 0x0c,0x00,0x3a,0x00,0x83,0xff,0xc4,0xff, // 15408
0x83,0x00,0xcd,0xff,0x79,0x00,0x4a,0x00, 0x92,0x00,0x28,0x00,0x28,0x00,0xd8,0xff, // 15424
0x84,0xff,0xf1,0xfe,0x0c,0x00,0x00,0x00, 0x0d,0x00,0xfd,0xff,0x00,0x00,0x00,0x00, // 15440
0xf1,0xff,0x87,0x00,0xef,0xff,0x09,0x00, 0xfb,0xff,0xc8,0xff,0xf6,0xff,0x63,0xff, // 15456
0x23,0x00,0xd1,0xff,0x17,0x00,0xe5,0xff, 0xc5,0xff,0x02,0x00,0xde,0xff,0x35,0x00, // 15472
0xda,0xff,0xf6,0xff,0xfa,0xff,0x0f,0x00, 0x13,0x00,0xc7,0xff,0xde,0xff,0x8e,0xff, // 15488
0x06,0x00,0xff,0xff,0xec,0xff,0xe1,0xff, 0xfd,0xff,0x4b,0x00,0x37,0x00,0x79,0xff, // 15504
0xff,0xff,0xc6,0xff,0xfb,0xff,0x03,0x00, 0xfa,0xff,0x1f,0x00,0x96,0x00,0x20,0x00, // 15520
0x3d,0x00,0x07,0x00,0x48,0x00,0xe3,0xff, 0xb9,0xff,0xee,0xff,0x09,0x00,0xc0,0xff, // 15536
0x88,0xff,0xfb,0xff,0x1e,0x00,0x07,0x00, 0xf6,0xff,0x04,0x00,0x3d,0x00,0xb0,0xff, // 15552
0xb1,0xff,0xfa,0xff,0x06,0x00,0x41,0x00, 0x19,0x00,0x18,0x00,0xe3,0xff,0x1b,0x00, // 15568
0xfb,0xff,0xf0,0xff,0x12,0x00,0xce,0xff, 0x05,0x00,0x0c,0x00,0x07,0x00,0xfa,0xff, // 15584
0x0b,0x00,0x04,0x00,0x4c,0x00,0xfb,0xff, 0x04,0x00,0x50,0x00,0xc7,0xff,0xfc,0xff, // 15600
0x09,0x00,0xf4,0xff,0xd8,0xff,0x34,0x00, 0x29,0x00,0xfd,0xff,0x14,0x00,0xf8,0xff, // 15616
0xe9,0xff,0xe3,0xff,0x9b,0xff,0x10,0x00, 0xfc,0xff,0xce,0xff,0xd9,0xff,0x08,0x00, // 15632
0x06,0x00,0xe6,0xff,0xe1,0xff,0x0d,0x00, 0x13,0x00,0xf4,0xff,0x04,0x00,0x14,0x00, // 15648
0x08,0x00,0x06,0x00,0xef,0xff,0x83,0x00, 0xf6,0xff,0xec,0xff,0x47,0x00,0xdc,0xff, // 15664
0x09,0x00,0xc7,0xff,0x10,0x00,0x2b,0x00, 0x0e,0x00,0xe5,0xff,0x94,0xff,0x5f,0xff, // 15680
0xfe,0xff,0xea,0xff,0xf2,0xff,0xf3,0xff, 0xef,0xff,0x0f,0x00,0x08,0x00,0x19,0x00, // 15696
0xfa,0xff,0xef,0xff,0x4a,0x00,0x08,0x00, 0xf7,0xff,0xe5,0xff,0xe0,0xfe,0x46,0xfb, // 15712
0x23,0x00,0xc3,0xff,0x11,0x00,0x38,0x00, 0xd5,0xff,0x63,0xfc,0x33,0x00,0x8a,0xfe, // 15728
0x46,0x00,0x36,0x00,0x14,0x00,0x57,0xff, 0xa2,0xff,0xb3,0xff,0xa1,0xff,0x52,0x00, // 15744
0x6a,0x00,0xa0,0xff,0xe0,0xff,0x30,0x00, 0xae,0xff,0xfa,0xff,0xf5,0xff,0x15,0x00, // 15760
0x3c,0x00,0xaa,0xff,0x56,0x00,0x5f,0x00, 0x0c,0x00,0xfd,0xff,0xf4,0xff,0x91,0xff, // 15776
0x02,0x00,0x57,0x00,0x4d,0x00,0x44,0xff, 0xf3,0xff,0xc9,0xff,0x14,0x00,0x48,0xff, // 15792
0x13,0x00,0x8f,0xff,0xa6,0xff,0xde,0xfe, 0x6b,0x00,0xf4,0xff,0x50,0xff,0xec,0xff, // 15808
0xa9,0xff,0xe4,0xff,0xfe,0xff,0xc8,0xff, 0x7d,0x00,0x04,0x00,0x18,0x00,0x2b,0x00, // 15824
0x05,0x00,0xc1,0xff,0x6b,0x00,0xa0,0xfe, 0x9c,0xff,0x39,0x00,0xf4,0xff,0x42,0x00, // 15840
0x96,0x00,0xc2,0xff,0x0e,0x00,0x3e,0x00, 0x11,0x00,0xb8,0xff,0x0b,0x00,0xce,0x01, // 15856
0x28,0x00,0xbd,0xff,0xbe,0xff,0xef,0xff, 0x53,0x00,0x2a,0x00,0x2a,0x00,0x01,0x00, // 15872
0x72,0x00,0x1d,0x00,0x39,0xff,0xd5,0xff, 0x5c,0x00,0x39,0x00,0xe0,0xff,0xd4,0xff, // 15888
0x7c,0x00,0x0b,0x00,0x20,0x00,0xe0,0xff, 0x58,0x00,0xc8,0xff,0x60,0x06,0x51,0x00, // 15904
0xa8,0xff,0xb5,0xff,0xdd,0xff,0x45,0x00, 0x31,0x00,0xea,0xff,0x13,0x00,0x3f,0x00, // 15920
0x1a,0x00,0xe5,0xff,0x9b,0xff,0x4d,0x00, 0xe1,0xff,0x0a,0x00,0x1b,0xff,0x94,0xff, // 15936
0x1b,0x00,0x8b,0xff,0x1b,0x00,0x6d,0xff, 0x66,0xff,0xb3,0xff,0x80,0x00,0x68,0xff, // 15952
0x43,0xff,0x68,0x00,0x8c,0x00,0x7a,0x00, 0x50,0x00,0x69,0xff,0xbf,0xff,0xd9,0xff, // 15968
0x05,0x00,0xd6,0xff,0xa0,0x00,0x8d,0x00, 0x23,0x01,0xf5,0xff,0xf9,0xfd,0x1d,0x00, // 15984
0x4f,0xff,0xc6,0xff,0x6f,0xff,0xd7,0xff, 0x04,0x00,0xfb,0xff,0x01,0x00,0x24,0x00, // 16000
0xe3,0xff,0x44,0x00,0xf2,0xff,0xf7,0xff, 0x2f,0x00,0x00,0x00,0x02,0x00,0x0a,0x00, // 16016
0xfc,0xff,0x17,0x00,0x03,0x00,0x04,0x00, 0x0f,0x00,0x05,0x00,0xff,0xff,0x1b,0x00, // 16032
0xb0,0xff,0xfb,0xff,0x00,0x00,0xff,0xff, 0x0a,0x00,0x39,0x00,0x25,0xfb,0xf6,0xff, // 16048
0x16,0x00,0xe0,0xff,0x02,0x00,0xd1,0xff, 0x0d,0x00,0xf4,0xff,0xef,0xff,0x12,0x00, // 16064
0xee,0xff,0x16,0x00,0xf7,0xff,0x08,0x00, 0xf7,0xff,0xfc,0x05,0x1a,0x00,0xf2,0xff, // 16080
0x0f,0x00,0xfe,0xff,0x09,0x00,0xf9,0xff, 0xf1,0xff,0xf4,0xff,0xfb,0xff,0x11,0x00, // 16096
0xf2,0xff,0x04,0x00,0xfc,0xff,0x0d,0x00, 0xf1,0xff,0x04,0x00,0xed,0xff,0xeb,0xff, // 16112
0xeb,0xff,0x0e,0x00,0xfe,0xff,0xf2,0xff, 0xec,0xff,0x0d,0x00,0xf0,0xff,0x07,0x00, // 16128
0x09,0x00,0x0c,0x00,0x03,0x00,0xea,0xff, 0xfa,0xff,0x0a,0x00,0xcd,0xff,0x03,0x00, // 16144
0x48,0x00,0xf7,0xff,0xff,0xff,0xed,0xff, 0xe7,0xff,0x13,0x00,0x23,0x00,0xf5,0xff, // 16160
0xfb,0xff,0xee,0xff,0xd6,0xff,0x22,0x00, 0x06,0x00,0xff,0xff,0xf3,0xff,0x32,0x00, // 16176
0xf4,0xff,0xfe,0xff,0xd0,0xff,0xf2,0xff, 0xe5,0xff,0x0e,0x00,0x01,0x00,0x08,0x00, // 16192
0x12,0x00,0x07,0x00,0xdc,0xff,0x30,0x00, 0xfb,0xff,0xe9,0xff,0x1a,0x02,0x17,0x00, // 16208
0x03,0x00,0x04,0x00,0x06,0x00,0x15,0x00, 0xe0,0xff,0x04,0x00,0xf3,0xff,0x0a,0x00, // 16224
0xff,0xff,0x10,0x00,0x17,0x00,0xdd,0xff, 0x0c,0x00,0xa1,0xf9,0xff,0xff,0xe4,0xff, // 16240
0xf9,0xff,0x0f,0x00,0xec,0xff,0x0b,0x00, 0x0e,0x00,0xf7,0xff,0xf6,0xff,0xf5,0xff, // 16256
0xf5,0xff,0x09,0x00,0x21,0x00,0xff,0xff, 0x05,0x00,0x04,0x00,0xec,0xff,0xfb,0xff, // 16272
0x82,0xff,0xf0,0xff,0x1b,0x00,0x16,0xff, 0xeb,0xff,0x99,0xfd,0x9d,0xff,0x11,0x00, // 16288
0x29,0x00,0x4f,0x00,0x53,0x00,0x00,0x00, 0x48,0xff,0xe5,0xff,0x02,0x00,0x0a,0x00, // 16304
0x44,0x00,0xa7,0xff,0xe3,0xff,0xac,0xff, 0x9d,0xff,0x67,0xff,0xdb,0xff,0x31,0x00, // 16320
0xbc,0xff,0xca,0xff,0x93,0x00,0x61,0x00, 0xd2,0xff,0xce,0xff,0x04,0x00,0x3f,0x00, // 16336
0xdd,0xff,0x0f,0x00,0x1b,0x00,0xf3,0xff, 0x27,0x00,0xe6,0xff,0x3e,0xff,0x03,0xff, // 16352
0x0c,0x00,0x74,0xff,0x9b,0xff,0x1b,0x00, 0xbd,0xff,0x0f,0x00,0x89,0xff,0xf7,0xff, // 16368
0x16,0x00,0xdc,0xff,0x79,0x00,0xe7,0xff, 0x62,0x00,0x95,0xff,0x17,0x00,0xd0,0xff, // 16384
0x0b,0x00,0x47,0xff,0x12,0x00,0x49,0x00, 0x15,0x00,0x28,0x00,0x05,0x00,0x29,0x00, // 16400
0x01,0x00,0x15,0x00,0x86,0x00,0xbb,0xff, 0xc8,0xff,0xfe,0xff,0xf9,0xff,0xac,0x00, // 16416
0x04,0x00,0x63,0x00,0x33,0x00,0x11,0x00, 0x99,0xff,0x03,0x00,0x22,0x00,0xed,0xff, // 16432
0xf9,0xff,0xb7,0xff,0x8e,0xff,0x23,0x00, 0xf4,0xff,0x33,0x00,0x6e,0x00,0x91,0xff, // 16448
0x18,0x01,0x2b,0x00,0x5a,0xff,0xab,0xff, 0x03,0x00,0xec,0xff,0x0e,0x03,0x14,0x00, // 16464
0x21,0x00,0xdd,0xff,0xf5,0xff,0x17,0x00, 0xf3,0xff,0xf1,0xff,0xbf,0xff,0x1f,0x00, // 16480
0x2f,0x00,0xfa,0xff,0x9c,0xff,0xbf,0xff, 0xf4,0xff,0x02,0x00,0x4b,0xfe,0x9f,0xff, // 16496
0xbe,0xff,0xec,0xff,0xd9,0xff,0xe7,0xff, 0x06,0xff,0xde,0xff,0x25,0x00,0xbf,0xff, // 16512
0xf5,0xfe,0xa2,0x00,0xa1,0x00,0x4e,0x00, 0xec,0xff,0x6f,0xfe,0xe7,0xff,0xf1,0xff, // 16528
0x00,0x00,0xc8,0xff,0x12,0x01,0x03,0x00, 0x1d,0x01,0x07,0x00,0xa5,0xf2,0xfd,0xff, // 16544
0x00,0xff,0x0b,0x00,0x0b,0x00,0x3d,0x00, 0xcb,0xff,0x8e,0x01,0xa6,0xff,0x3f,0x00, // 16560
0x45,0x00,0x05,0x00,0x6a,0xff,0x21,0x00, 0xab,0xff,0xf1,0xff,0xe5,0xff,0xe3,0xff, // 16576
0xf0,0xff,0x28,0x01,0x71,0xff,0xe8,0xff, 0xb6,0xff,0xd7,0xfe,0x4e,0x00,0x38,0x00, // 16592
0xbd,0x00,0x0a,0x00,0x52,0x00,0xbb,0xff, 0xe6,0xff,0x0a,0x00,0xe5,0xff,0xba,0xff, // 16608
0x95,0x00,0xa9,0x00,0x59,0x00,0xc7,0xff, 0x58,0x00,0x9f,0xff,0xbd,0xfe,0xec,0xff, // 16624
0x42,0x00,0x29,0x01,0x52,0x00,0x29,0x00, 0x5e,0x00,0x34,0x00,0x36,0x00,0xff,0xff, // 16640
0x3e,0x00,0x7c,0xff,0x2e,0x00,0x4a,0x00, 0x12,0x00,0x5c,0x00,0x02,0x00,0x47,0x01, // 16656
0xc7,0xff,0x23,0x00,0xb5,0xff,0x8a,0xff, 0x4b,0x00,0xf4,0xff,0xf6,0xff,0x40,0x00, // 16672
0xfa,0xff,0xf3,0xff,0x7b,0xff,0xc0,0xfe, 0x3a,0xfe,0xd1,0x00,0x1c,0x00,0xd8,0xff, // 16688
0xc9,0xff,0x6f,0x01,0x03,0x00,0xb9,0xff, 0x31,0x00,0x7d,0x00,0xb0,0xff,0x14,0x00, // 16704
0xb8,0xff,0xa3,0xf2,0x72,0xff,0x35,0x00, 0xc0,0xff,0x5b,0x00,0xcb,0xff,0x3d,0x00, // 16720
0xa2,0xfd,0xd0,0x00,0xe7,0xff,0x54,0xff, 0x25,0x00,0x38,0x00,0x59,0x00,0x24,0x00, // 16736
0xb0,0x00,0xfc,0xff,0xde,0xff,0x0b,0x00, 0xe8,0xff,0x5a,0x01,0x7a,0x00,0xb3,0xfe, // 16752
0xdc,0xff,0x4c,0x00,0x32,0x00,0x47,0x00, 0xd1,0xff,0x8c,0x00,0x1d,0x00,0x43,0x00, // 16768
0xdb,0xff,0xa6,0xff,0xb4,0xff,0x3e,0x00, 0x3b,0x00,0x0d,0x00,0x0a,0x00,0x45,0x00, // 16784
0x1c,0x00,0x5e,0x01,0x4f,0x00,0x63,0x00, 0x27,0x00,0xdf,0xff,0x86,0xff,0xcd,0xff, // 16800
0xbf,0xff,0xe3,0xff,0xef,0x00,0x95,0x0f, 0xba,0xff,0x12,0x00,0xd4,0xff,0x64,0xff, // 16816
0xd3,0xff,0x3d,0x00,0x06,0x00,0xe0,0xff, 0x24,0x00,0xb0,0xff,0x5b,0x00,0x18,0x00, // 16832
0x35,0x00,0x85,0xff,0xeb,0xff,0xe9,0x00, 0x99,0xff,0x5f,0xff,0x16,0x00,0xf9,0xf7, // 16848
0x07,0xff,0xff,0xff,0x67,0xff,0x32,0x00, 0xe7,0x00,0x1d,0x00,0xd5,0xff,0xda,0xff, // 16864
0x6d,0x00,0x95,0xff,0x11,0x00,0x55,0x00, 0x79,0xff,0x8a,0x00,0xd9,0xff,0xde,0xff, // 16880
0x0e,0x00,0x0e,0x00,0x3f,0x00,0x2a,0x00, 0x41,0x00,0x6b,0x00,0x1c,0x00,0x2b,0x00, // 16896
0xce,0xff,0xee,0xff,0x02,0x00,0x1a,0x00, 0xc1,0xff,0x09,0x00,0x73,0x00,0xf7,0xff, // 16912
0x21,0x00,0xdc,0xff,0x0c,0x00,0x58,0xf9, 0xcd,0xff,0xf0,0xff,0x95,0xff,0x11,0x00, // 16928
0x07,0x00,0xb8,0xff,0x82,0xff,0x06,0x00, 0x2a,0x00,0x70,0x00,0xff,0xff,0x0a,0x00, // 16944
0x12,0x00,0x74,0x00,0xeb,0xff,0xa8,0xfe, 0x1a,0x00,0xdc,0xff,0xe6,0xff,0xf5,0xff, // 16960
0xef,0xff,0x12,0x00,0xbd,0xff,0x2b,0x00, 0x4d,0x00,0x7f,0xff,0x91,0x00,0xd9,0x00, // 16976
0x9d,0xff,0xfa,0xff,0x82,0x00,0x1c,0x00, 0x4d,0xff,0x37,0x00,0xf9,0xff,0x21,0x00, // 16992
0xfc,0xff,0xbe,0xff,0x18,0x00,0xc6,0xff, 0x04,0x00,0xcb,0xff,0xe0,0xff,0x32,0x00, // 17008
0x61,0xff,0x55,0xff,0x52,0x00,0x69,0x00, 0x2f,0x00,0x78,0xff,0x37,0x00,0xb6,0xff, // 17024
0xbc,0xff,0xfc,0xff,0x1d,0x00,0x68,0x00, 0xe9,0xff,0x2f,0x00,0x93,0xff,0xff,0xff, // 17040
0xd7,0xff,0x88,0xff,0xe2,0xff,0xd4,0xff, 0xa1,0x00,0x01,0x00,0x90,0x00,0xc3,0xff, // 17056
0x5d,0x00,0x31,0x00,0x7e,0xff,0x0a,0x00, 0xe5,0xff,0x03,0x00,0x3d,0x00,0x5c,0xff, // 17072
0xf6,0xff,0x05,0x00,0xf2,0x00,0x01,0x00, 0xe3,0xff,0x85,0x00,0xa7,0xff,0xd5,0xff, // 17088
0xb9,0xff,0x56,0x00,0x24,0x00,0xf5,0xff, 0x36,0x00,0xe9,0xff,0x0d,0x00,0x01,0x00, // 17104
0xa3,0xff,0x96,0x00,0x98,0xff,0xf6,0xff, 0x04,0x00,0x05,0xfe,0x86,0xff,0x03,0x00, // 17120
0x84,0xfd,0x04,0x00,0xcf,0xff,0xc3,0xff, 0x35,0x00,0x54,0x00,0xe3,0xff,0xdf,0xff, // 17136
0xfd,0xff,0xf8,0xff,0x04,0x00,0x93,0xff, 0xf3,0xff,0x68,0x00,0xe2,0xff,0x8e,0x00, // 17152
0x65,0x00,0xe0,0xff,0xdb,0xfe,0x96,0xff, 0x3d,0x00,0x62,0x01,0x72,0xfd,0xe3,0xff, // 17168
0xff,0xff,0x60,0x00,0xf8,0xff,0xcf,0x00, 0xc5,0xfe,0x16,0x00,0xfb,0xff,0xf0,0xff, // 17184
0xc7,0xff,0x1b,0x00,0xa3,0xff,0xf2,0x00, 0xad,0xff,0x92,0x02,0x8b,0xff,0xb7,0xff, // 17200
0xba,0xff,0x9c,0xff,0xf5,0xff,0x0e,0x00, 0x97,0xff,0xa9,0xfd,0xf3,0xff,0x22,0x00, // 17216
0xff,0xff,0xe4,0xff,0xf7,0xff,0x10,0x00, 0xbc,0xff,0xd2,0xff,0x57,0xff,0x84,0xff, // 17232
0x91,0xff,0x11,0x00,0xcc,0xff,0x11,0x00, 0xca,0x00,0x6b,0xff,0xc6,0xff,0x7a,0x00, // 17248
0x39,0x00,0xc7,0xfd,0x47,0x00,0xa0,0xff, 0x28,0x00,0xdf,0xff,0x7b,0x00,0x9f,0x00, // 17264
0x2c,0x00,0x77,0x00,0xf7,0xff,0x5b,0xff, 0x59,0xff,0x8e,0xff,0x9b,0xff,0xe2,0xff, // 17280
0xe5,0x00,0xbd,0xfe,0x49,0xff,0x3b,0x00, 0xfd,0xff,0x30,0x00,0x8a,0xff,0x73,0x00, // 17296
0xff,0xff,0xdf,0xff,0x60,0x00,0x49,0x00, 0xab,0xff,0x0d,0x00,0xf3,0xff,0x74,0x02, // 17312
0x07,0x00,0x2c,0x00,0xc5,0xff,0xc9,0xff, 0xb5,0xff,0xd7,0xfb,0x73,0x02,0x89,0xff, // 17328
0xe0,0xff,0x8e,0xff,0xd5,0xff,0xd6,0xff, 0x2a,0x00,0x34,0x00,0xf4,0xff,0x58,0xff, // 17344
0x09,0x01,0x03,0x00,0x7d,0xff,0xce,0xff, 0xf3,0x00,0x5f,0xfd,0xcc,0xff,0x63,0x00, // 17360
0xba,0xff,0xf0,0xff,0x95,0xfe,0x6f,0xff, 0xa5,0xff,0xe7,0xff,0x13,0xff,0xca,0x00, // 17376
0x61,0xff,0x04,0x00,0x93,0xff,0x82,0xff, 0x15,0x01,0x2c,0x00,0xcb,0xff,0xd8,0xff, // 17392
0xf9,0xff,0x02,0x00,0xc0,0xff,0xd3,0xff, 0xf9,0xff,0x3e,0x00,0xf0,0xff,0x64,0x00, // 17408
0xfc,0xff,0x31,0x00,0xec,0xff,0xdc,0xff, 0x11,0x00,0xe7,0xff,0x34,0x00,0x41,0x00, // 17424
0xa8,0xff,0xc6,0xff,0xf3,0xff,0x06,0xff, 0x50,0x00,0x13,0x00,0x24,0x00,0x3d,0x00, // 17440
0xe9,0xff,0xef,0x09,0x14,0xff,0x7b,0xff, 0x07,0x00,0xfc,0xff,0x0a,0x00,0x87,0x00, // 17456
0xf1,0xff,0x13,0x00,0x0d,0x00,0xe5,0xff, 0xfb,0xff,0xec,0xff,0x08,0x00,0x96,0x00, // 17472
0x51,0x00,0xfa,0x00,0x63,0x00,0x4e,0x00, 0x54,0x00,0x40,0x00,0xc8,0xff,0xf8,0xff, // 17488
0xd6,0xff,0x0d,0x00,0xe9,0xff,0xfa,0xff, 0x8b,0xff,0x0b,0x00,0xfd,0xff,0xea,0xff, // 17504
0x4c,0x00,0xed,0xff,0x42,0xfa,0x1c,0x00, 0xd9,0xff,0x10,0x00,0xca,0xff,0x14,0x00, // 17520
0x1c,0x00,0x0d,0x00,0x34,0x00,0xe5,0xff, 0xeb,0xff,0xf0,0xff,0xb8,0xff,0x76,0xff, // 17536
0xdf,0xff,0x09,0x00,0x8a,0x00,0xc0,0xff, 0x96,0x00,0xf6,0xff,0x7d,0x00,0x2b,0x00, // 17552
0xe1,0xff,0x5c,0xfe,0xd6,0xff,0x20,0x00, 0x29,0x00,0x90,0x00,0xea,0x00,0xd4,0xff, // 17568
0xfb,0xff,0xbe,0xff,0x06,0x00,0x3b,0xff, 0xe2,0xff,0x54,0x00,0xea,0xff,0xa5,0xff, // 17584
0x23,0x00,0xfa,0xff,0xea,0xff,0xf8,0xff, 0xe6,0xff,0xcc,0xff,0xf5,0xff,0x3b,0x00, // 17600
0x3e,0x00,0x1a,0x00,0xec,0x01,0xa9,0xff, 0x07,0x00,0x37,0x00,0xe2,0xff,0x6e,0x00, // 17616
0x31,0x00,0xf1,0x02,0x76,0x00,0xf3,0xff, 0x9e,0x00,0xeb,0xff,0x63,0x00,0x78,0x00, // 17632
0x85,0x00,0x26,0xff,0xb8,0x00,0xa0,0xff, 0xd7,0xff,0xf8,0xff,0x13,0x00,0x02,0x00, // 17648
0xe8,0xff,0x01,0x00,0x4b,0xff,0x26,0x00, 0x2d,0xff,0x28,0x00,0x1d,0x00,0x35,0x00, // 17664
